<pad> 0
<bos> 1
<eos> 2
a 3
▁_ 4
▁plus 5
II 6
▁own 7
▁يۈر 8
enseignement 9
▁الصحة 10
ective 11
▁varianta 12
▁كثيرة 13
。( 14
▁គ្មាន 15
▁bl 16
▁hakka 17
得到 18
وره 19
▁లాంటి 20
мел 21
▁որոշում 22
開啟 23
ଯିବା 24
▁Profi 25
▁země 26
▁spel 27
▁приложения 28
▁tranz 29
▁እንደሚያ 30
ky 31
hir 32
▁зохиол 33
▁euros 34
▁Day 35
ўскага 36
▁zame 37
▁இய 38
▁primo 39
pál 40
शाला 41
mark 42
nni 43
▁powinny 44
ഭാഗ 45
▁esquerda 46
▁Dal 47
्रे 48
环境 49
▁tegutse 50
▁isimler 51
▁सम्बन्धी 52
▁naye 53
álna 54
ut 55
▁(8) 56
jour 57
वारी 58
▁planu 59
▁Qu 60
▁ልማት 61
urun 62
vio 63
ĉo 64
▁များ 65
对手 66
▁sonrasında 67
▁lesbisk 68
▁watching 69
▁Νομ 70
▁Igen 71
▁тілінде 72
▁intuitiv 73
keel 74
▁tum 75
▁trendy 76
بري 77
▁hetkel 78
sä 79
杂 80
▁jaj 81
▁దిగ 82
▁Er 83
▁62 84
ఫ 85
▁elite 86
▁PAT 87
افية 88
siwn 89
▁δρ 90
ခွင့် 91
sport 92
afhankelijk 93
mg 94
▁آشنایی 95
▁ਆਪਣਾ 96
▁Đình 97
▁праздник 98
เดอร์ 99
▁acasă 100
▁redaktə 101
▁modellen 102
▁Mug 103
▁Agung 104
▁जगत 105
▁taman 106
算 107
ռն 108
▁700 109
optim 110
▁pokazuje 111
▁blisko 112
カ 113
▁ខ្ 114
▁Будь 115
생 116
▁dhinac 117
View 118
bygger 119
▁대부분 120
드는 121
▁destaque 122
▁shin 123
合理的 124
szerelés 125
叫 126
дељ 127
брана 128
mbal 129
ສາກົນ 130
▁الطلاب 131
▁society 132
▁Č 133
▁حرارت 134
▁Jumala 135
▁uzņēmuma 136
еміз 137
▁Uz 138
১৫ 139
ejše 140
フォ 141
ជនជាតិ 142
▁അത്ര 143
まとめ 144
▁Terror 145
▁ရဲ့ 146
58 147
▁competencia 148
▁WP 149
ფს 150
stru 151
Actual 152
▁министри 153
poser 154
ντι 155
cc 156
▁აბა 157
先に 158
▁argumento 159
▁характера 160
lina 161
▁ຂໍ້ 162
τικός 163
οξ 164
▁آبادی 165
專輯 166
▁saate 167
▁الدور 168
▁выплат 169
▁комисия 170
▁Bunlar 171
ट्र 172
mä 173
وزی 174
▁катар 175
攝 176
▁медиуми 177
▁realitet 178
ທ່ອງທ່ຽວ 179
프 180
▁supply 181
▁फायदे 182
абыз 183
▁jauniešu 184
▁الصلاة 185
▁Nova 186
遊客 187
▁světě 188
മാക്ക 189
▁Cam 190
▁จุด 191
▁लिग 192
აუ 193
▁Caso 194
மூ 195
klep 196
้อย 197
▁Black 198
▁münasibət 199
bak 200
▁preferat 201
是他 202
安全性 203
▁penale 204
осо 205
▁etgan 206
▁Mooi 207
▁Cel 208
▁numera 209
▁giun 210
▁99 211
十六 212
▁3-1 213
▁reais 214
hari 215
事実 216
▁garš 217
팔 218
▁zdravi 219
Ду 220
ામ 221
▁hissə 222
주세요 223
кті 224
▁Lan 225
▁söka 226
rosi 227
нети 228
fone 229
▁ಬಳಕೆ 230
დუ 231
qi 232
▁Net 233
▁상담 234
▁السا 235
נל 236
▁Tirkiye 237
▁چەك 238
erend 239
▁tahmin 240
▁ພາບ 241
pasok 242
cu 243
▁Up 244
▁Српски 245
ۋاتقان 246
▁vei 247
jetno 248
▁1.7 249
▁obmedz 250
misli 251
▁gói 252
▁Академи 253
▁ଗତ 254
▁baho 255
续 256
▁measc 257
外界 258
ӨН 259
▁utilizarea 260
▁Dalma 261
▁Ē 262
▁DNS 263
▁kepe 264
▁littera 265
DRA 266
គី 267
數 268
ачки 269
arrivo 270
ta 271
▁dar 272
MI 273
▁tulajdon 274
鬥 275
捐 276
継続 277
▁મુક 278
멘 279
▁Mahkamah 280
皮 281
▁عيد 282
שית 283
▁Consejo 284
若干 285
▁دیکھنے 286
▁pogleda 287
配件 288
▁Pemba 289
केश 290
▁община 291
看起來 292
▁premi 293
▁αυτής 294
ბაზ 295
届 296
▁небес 297
影响 298
▁รวมทั้ง 299
▁prison 300
▁bath 301
▁sugar 302
▁offert 303
▁Добав 304
▁gera 305
▁تجد 306
TM 307
▁ಸಲ್ಲಿಸ 308
▁одяг 309
▁mieleen 310
zić 311
▁] 312
▁menší 313
trus 314
死了 315
▁Kombin 316
▁бабу 317
▁çal 318
癌症 319
▁ձայն 320
▁mej 321
▁चन्द्र 322
▁පිරිස 323
графічн 324
短 325
博物馆 326
妖 327
▁соз 328
▁жаны 329
樂 330
▁Ngài 331
▁tai 332
▁حقيقي 333
être 334
forvaltning 335
▁skro 336
щее 337
▁잔 338
上一 339
gehalten 340
▁anima 341
мышлен 342
▁Råd 343
▁유럽 344
▁қатыс 345
евіч 346
▁Sangat 347
തര 348
İS 349
进 350
ヘ 351
▁rase 352
ebiliyor 353
ans 354
▁rendszeres 355
組 356
▁tələbələr 357
▁teszt 358
data 359
▁troll 360
▁निरा 361
duci 362
抬 363
остей 364
რეთ 365
逾 366
人力资源 367
čkih 368
運転 369
เชิญ 370
▁العلاقات 371
Mor 372
▁ಸ್ಪ 373
sen 374
▁소재 375
▁ඔබගේ 376
willig 377
▁Tele 378
HAS 379
HV 380
لحق 381
iate 382
▁ستاره 383
verk 384
▁жада 385
▁akció 386
czkę 387
▁havne 388
▁Hade 389
rath 390
ড়ে 391
رحم 392
▁Ven 393
▁ලියන 394
عنا 395
נעמען 396
▁Zavod 397
վիր 398
▁57 399
▁putus 400
▁цените 401
कले 402
▁puas 403
စက် 404
ว์ 405
▁அதில் 406
јски 407
▁istedi 408
▁Konkur 409
▁idées 410
れ 411
▁šeimos 412
▁Opći 413
毛 414
▁ajutor 415
▁Oh 416
▁نشانه 417
▁vir 418
增加 419
▁Тарас 420
▁vull 421
▁ወያኔ 422
▁uçak 423
▁ເມ 424
borg 425
▁სერ 426
▁2014) 427
ාගේ 428
▁arriver 429
▁قدیمی 430
系統 431
اعي 432
▁инди 433
длын 434
nova 435
▁Bier 436
▁lalo 437
ຈັກ 438
▁صفر 439
ėjimą 440
例子 441
SAL 442
▁өмч 443
ျမန္မာ 444
eien 445
отека 446
application 447
▁приведен 448
ër 449
▁ኪ 450
ele 451
▁ببر 452
▁kodi 453
▁ኃላፊ 454
▁favoritt 455
供应商 456
▁LR 457
ダウンロード 458
▁signifi 459
အောက် 460
▁Sánchez 461
▁diharapkan 462
▁взаимо 463
▁petit 464
▁тұрақты 465
▁의견 466
▁probar 467
▁navegador 468
▁udalerri 469
ቷል። 470
▁little 471
▁жители 472
▁עולה 473
▁undersøgelse 474
లర్ 475
sul 476
▁Gwen 477
▁osobne 478
.10. 479
▁లేక 480
▁friendly 481
▁trgu 482
▁Віль 483
namn 484
8 485
▁Medan 486
▁hüququ 487
▁lijst 488
▁กําลัง 489
gane 490
▁आउन 491
だった 492
chová 493
聽到 494
▁تكن 495
▁stanice 496
▁Vilka 497
למה 498
▁prijzen 499
▁처 500
raj 501
姐姐 502
▁відправ 503
ney 504
▁tush 505
link 506
पाट 507
强大的 508
sborg 509
FB 510
çısı 511
▁sio 512
βα 513
▁ສາມາດ 514
liik 515
▁tecnico 516
▁गर्दछ 517
▁수 518
▁providing 519
िन्छ 520
▁행동 521
▁düşük 522
ใช้เวลา 523
ināšana 524
▁vacibdir 525
▁chaleur 526
▁apkārt 527
▁øje 528
▁numbers 529
▁Brief 530
▁rămas 531
ሶች 532
▁noon 533
▁Nazionale 534
سية 535
▁maioría 536
▁수행 537
▁दोस्त 538
▁ქა 539
తూ 540
ාට 541
▁VIS 542
▁воспита 543
е 544
fa 545
جائزة 546
基本的に 547
▁ಮ್ಯಾ 548
epoca 549
▁Tên 550
zko 551
▁salsa 552
▁nettsiden 553
رقة 554
▁fort 555
▁Черно 556
φύγ 557
▁rain 558
gitur 559
ાને 560
审查 561
诉讼 562
مساعدة 563
▁диви 564
▁Paul 565
áin 566
▁x 567
저 568
▁créé 569
▁Verander 570
▁жазыл 571
ഭവ 572
▁žali 573
sebenzi 574
者は 575
▁ہوا۔ 576
▁مقررات 577
▁කථා 578
▁gjet 579
্টার 580
▁있음 581
▁linja 582
nka 583
▁συνεργ 584
▁Milli 585
qı 586
▁ការងារ 587
▁vous 588
ഓ 589
▁השו 590
競爭 591
maksa 592
慰 593
▁inima 594
▁shqip 595
▁meno 596
▁bữa 597
▁постепенно 598
oeuvre 599
▁старонку 600
▁Hrvatsku 601
▁rừng 602
▁السلطة 603
kovej 604
ì 605
▁vết 606
ცხო 607
▁qoraal 608
▁Sem 609
▁جاده 610
▁Mislim 611
▁Sept 612
▁arte 613
▁বার্তা 614
机器人 615
▁rese 616
សម្ 617
ҮР 618
▁dominio 619
▁samning 620
park 621
推 622
▁מגוון 623
▁пяти 624
renta 625
ë 626
▁merce 627
有機 628
棋 629
▁Cristian 630
▁Kaup 631
▁Lise 632
штај 633
ਾਤ 634
คล้าย 635
▁gyümölcs 636
战 637
▁сотрудников 638
▁നിറഞ്ഞ 639
▁Yunan 640
▁ਪੇਸ਼ 641
▁cúi 642
▁banda 643
▁digitaal 644
video 645
▁Suh 646
▁odnosu 647
سيطر 648
▁българските 649
▁Amb 650
ටුව 651
დარ 652
▁בקר 653
▁Fernseh 654
▁lekin 655
800 656
Aus 657
▁pesos 658
▁Mater 659
6,000 660
▁gratuite 661
kontoret 662
ელთა 663
ခ်ိဳ 664
▁Vlad 665
随时 666
тику 667
▁Gre 668
▁Innen 669
提出的 670
kák 671
▁astept 672
▁zvezd 673
▁dolce 674
▁Bio 675
▁πρωί 676
lio 677
▁gegaan 678
▁helburu 679
▁Коз 680
▁තෙ 681
Sol 682
óban 683
▁zë 684
挖 685
▁millest 686
ងាយ 687
▁雖然 688
殼 689
döntő 690
กางเกง 691
▁Gábor 692
▁കാഴ്ച 693
になる 694
▁atlikti 695
เจอร์ 696
世界各地 697
▁percuma 698
▁proceder 699
eret 700
▁hesabat 701
통신 702
▁गराउन 703
▁ret 704
▁เป็นต้น 705
▁Srbi 706
▁Perché 707
▁відділу 708
▁dog 709
▁INTE 710
▁биолог 711
▁začel 712
▁šventė 713
▁Berlin 714
kosa 715
्दी 716
▁USB 717
гүл 718
ranse 719
▁Virtu 720
شب 721
ûrê 722
▁hutan 723
παρα 724
ШЕ 725
رفت 726
מוס 727
ជួយ 728
▁göstərən 729
▁муниципал 730
▁Қазіргі 731
▁scène 732
อัพ 733
fi 734
ijo 735
▁tuilleadh 736
▁Поради 737
▁arvu 738
▁Абай 739
▁mars 740
eremo 741
▁शव 742
balo 743
رأ 744
▁1,5 745
wsze 746
五十 747
сцей 748
▁APK 749
pr 750
▁корисник 751
zat 752
ดุ 753
34 754
もらえ 755
▁ປະເທດ 756
▁Wada 757
सित 758
▁مشتریان 759
▁ac 760
▁cred 761
ాల్సి 762
บอร์ด 763
▁primari 764
▁konkurranse 765
▁жау 766
個人 767
▁yerdə 768
和谐 769
徹底 770
わたし 771
网络 772
▁পেয়ে 773
képzés 774
▁Gymru 775
▁моменти 776
▁arra 777
▁Определение 778
▁povedať 779
健全 780
stod 781
pod 782
ทั่ว 783
▁festivali 784
▁queria 785
▁Kaj 786
▁vejen 787
▁kasvi 788
▁d 789
▁3. 790
▁Анан 791
協力 792
▁racional 793
▁ക്കുന്ന 794
▁knyttet 795
▁erityis 796
ативни 797
បាត់ 798
JM 799
司机 800
▁razm 801
▁Llo 802
▁egészen 803
tape 804
ુર 805
▁දෙනෙකු 806
▁בריאות 807
▁bonnes 808
ٿي 809
▁öffentlichen 810
▁aller 811
▁එකෙන් 812
▁məqalələr 813
maya 814
▁shkon 815
▁ایپ 816
▁ေတြ 817
创新 818
ziņu 819
ć 820
▁Türk 821
ИГ 822
選擇 823
▁uspešno 824
▁болохоор 825
▁gri 826
▁приче 827
▁shkrim 828
▁Malin 829
▁команди 830
▁Tapi 831
istele 832
▁Rusiyanın 833
▁стоял 834
чылі 835
▁свр 836
વાસ 837
▁определи 838
szerkesztés 839
▁الجزائر 840
▁مطالبہ 841
ורג 842
lunga 843
▁فقر 844
ye 845
ums 846
▁филма 847
▁الحسن 848
лардан 849
▁Sli 850
બાર 851
americana 852
▁capital 853
正确的 854
▁своему 855
▁prosjekt 856
▁스 857
▁видели 858
úirt 859
tine 860
找不到 861
ក្បាល 862
▁engin 863
istin 864
▁ជួប 865
▁fifa 866
schnitt 867
▁ব্যাংক 868
administra 869
getragen 870
▁नोटिफिकेशन 871
ေထာက္ 872
之前 873
▁зави 874
以 875
▁لماذا 876
▁old 877
▁wynosi 878
▁Für 879
altı 880
▁التج 881
▁tekur 882
▁இல்ல 883
▁Spider 884
IŠ 885
▁Oyunları 886
▁head 887
▁frequent 888
▁అడుగు 889
ьян 890
OJA 891
ೀಕರಣ 892
▁모 893
▁säker 894
혁신 895
HIT 896
▁Jy 897
▁programs 898
чылар 899
owicz 900
▁καιρό 901
ista 902
ўскай 903
trí 904
-5 905
สภา 906
▁Gesundheit 907
野 908
▁өзгерістер 909
▁inveni 910
Монгол 911
素 912
螢幕 913
スタイル 914
▁நம்ம 915
▁Movie 916
▁mbi 917
▁hətta 918
▁долг 919
▁bladsy 920
列表 921
▁одсто 922
▁stii 923
▁recuperación 924
对 925
出来 926
▁වන්න 927
vaks 928
▁метода 929
▁고려 930
▁ຈັດ 931
mático 932
▁զոհ 933
▁хама 934
▁хү 935
▁meslek 936
派 937
पत् 938
▁кайсы 939
▁максат 940
▁hämta 941
િસ 942
▁kotona 943
פתי 944
Ազատություն 945
冷 946
dul 947
▁dienen 948
▁resolve 949
Жи 950
વાળા 951
▁Thần 952
tuar 953
ping 954
Ձ 955
geht 956
▁insect 957
▁enako 958
▁Oo 959
▁ਸਿਰ 960
▁mfano 961
▁Ró 962
▁निगम 963
LAY 964
ົ້ 965
▁ο 966
поз 967
321 968
▁Duniya 969
▁radhë 970
▁standa 971
▁district 972
▁ട്ട 973
etate 974
ອະ 975
▁Pie 976
скре 977
RAI 978
斯坦 979
срочно 980
ampu 981
▁overal 982
▁madeira 983
ով՝ 984
類似 985
▁खि 986
▁gắn 987
交流 988
gelt 989
▁원 990
▁tienda 991
▁22 992
ολογίας 993
▁пережива 994
凭 995
优惠 996
▁keturi 997
sc 998
霧 999
▁lembrar 1000
rig 1001
▁ochrony 1002
▁bakgrunn 1003
▁لڳو 1004
방송 1005
▁2001, 1006
▁проверя 1007
▁Fredrik 1008
▁Koch 1009
▁Аллах 1010
cze 1011
一体 1012
敌 1013
▁živali 1014
▁Partiya 1015
▁Ivana 1016
iyorsunuz 1017
ère 1018
▁Šport 1019
основан 1020
出 1021
ulo 1022
▁Alternative 1023
也都 1024
يدا 1025
▁Guds 1026
Yeni 1027
овое 1028
ngu 1029
▁frustr 1030
▁στρ 1031
▁ล้าน 1032
▁Willem 1033
점이 1034
ulio 1035
旨在 1036
に対応 1037
▁avtal 1038
ില്ലാത്ത 1039
基本 1040
טבע 1041
ಾರ್ಥ 1042
yanı 1043
▁පී 1044
θος 1045
▁имати 1046
▁användas 1047
栏 1048
▁pamięta 1049
aura 1050
ကံ 1051
trž 1052
▁fasilitas 1053
ь 1054
▁proc 1055
▁ခုႏွစ္ 1056
▁૧૯ 1057
▁Kol 1058
ляться 1059
▁जानते 1060
▁skyn 1061
лювати 1062
章 1063
▁tủ 1064
▁ձեռնարկ 1065
中で 1066
▁Фин 1067
▁BUR 1068
是否 1069
जनक 1070
▁موافق 1071
▁راحتی 1072
sk 1073
▁ጋ 1074
▁uzvar 1075
MED 1076
тую 1077
▁Vad 1078
flutning 1079
▁воно 1080
riba 1081
환경 1082
▁مفاد 1083
gnu 1084
šava 1085
ório 1086
alp 1087
▁aurrean 1088
ුන් 1089
hơ 1090
પૂર્ણ 1091
▁ఆంధ్రప్రదేశ్ 1092
ขวา 1093
ih 1094
▁Vir 1095
▁vuelta 1096
▁sense 1097
íð 1098
▁shkollë 1099
成立于 1100
ដែរ 1101
▁Muze 1102
ాని 1103
▁suve 1104
▁يخ 1105
▁korting 1106
▁policial 1107
市场上 1108
cijom 1109
اسات 1110
▁usku 1111
天使 1112
▁235 1113
▁حوال 1114
fortuna 1115
▁ሆነው 1116
кажите 1117
Ge 1118
▁løse 1119
▁Hostel 1120
▁anume 1121
▁soare 1122
▁veramente 1123
িয়ার 1124
▁rinne 1125
▁تونس 1126
inter 1127
▁Teresa 1128
▁Рис 1129
OTT 1130
▁humain 1131
▁passa 1132
प्ट 1133
ющими 1134
▁társaság 1135
▁яриа 1136
▁Joka 1137
▁publication 1138
▁Veik 1139
选 1140
新华社 1141
γεται 1142
hur 1143
▁comuna 1144
よ 1145
ப்படி 1146
▁Hel 1147
▁الحد 1148
▁κοινό 1149
▁යාම 1150
▁reusit 1151
aux 1152
▁कल्याण 1153
▁مميز 1154
▁opnieuw 1155
▁nic 1156
▁Já 1157
▁내용을 1158
▁mijenja 1159
▁objetos 1160
▁Ud 1161
▁думал 1162
▁Waxay 1163
▁kvalita 1164
▁libere 1165
▁මතු 1166
▁трэ 1167
▁pequenas 1168
等到 1169
ნდო 1170
▁lue 1171
ある 1172
īšanu 1173
▁интересов 1174
▁РУ 1175
عجز 1176
are 1177
▁ລັດຖະບານ 1178
▁ısı 1179
treba 1180
▁ubica 1181
國際 1182
▁növel 1183
▁dokumente 1184
▁Hun 1185
سيل 1186
арен 1187
▁것이 1188
▁financira 1189
▁herre 1190
日报道 1191
▁meðan 1192
vod 1193
▁தெரிய 1194
慌 1195
nggih 1196
▁kuwaas 1197
听 1198
체 1199
▁Pravilnik 1200
▁Liter 1201
▁trông 1202
내 1203
chester 1204
▁گهرجي 1205
ZK 1206
2) 1207
▁השירות 1208
▁Mayor 1209
▁Ed 1210
▁ಹೆಸರ 1211
خاص 1212
▁Ara 1213
▁DDR 1214
▁کھا 1215
▁minimo 1216
zetten 1217
让他们 1218
skrivning 1219
middelen 1220
ਫੀ 1221
ščine 1222
▁gjald 1223
ल्लो 1224
የሁ 1225
ljev 1226
▁tuis 1227
▁pojazd 1228
▁dorm 1229
▁neskôr 1230
৩১ 1231
ստր 1232
도 1233
tais 1234
חוף 1235
▁말을 1236
▁França 1237
▁verkeerd 1238
▁şəxslərin 1239
▁oito 1240
拒 1241
▁գործընկեր 1242
▁Augustin 1243
ītes 1244
vill 1245
▁Ihres 1246
▁laenu 1247
壯 1248
▁turu 1249
ており 1250
▁સંબંધ 1251
Te 1252
▁yavaş 1253
▁दाखल 1254
ුනා 1255
▁berkuasa 1256
ახლო 1257
өөд 1258
shib 1259
▁Fish 1260
ুম 1261
▁2014 1262
▁nota 1263
▁kendisine 1264
▁представник 1265
ries 1266
ыч 1267
海上 1268
ിക്കുകയും 1269
▁vegetal 1270
ировки 1271
▁ప్రారంభ 1272
▁선 1273
વલ 1274
制度 1275
▁blizu 1276
ልም 1277
▁Zapo 1278
▁krag 1279
ργα 1280
▁преду 1281
要 1282
地方 1283
折扣 1284
孟 1285
惨 1286
仪式 1287
▁пря 1288
▁Privacy 1289
▁коришћења 1290
▁다른 1291
▁alcance 1292
▁ਆਉਣ 1293
▁прибыль 1294
▁lat 1295
▁ligesom 1296
ที่ถูก 1297
少なく 1298
үң 1299
致 1300
▁querer 1301
▁azaldu 1302
▁mendon 1303
זרים 1304
ГРА 1305
▁Høy 1306
▁አፍሪካ 1307
▁množství 1308
dhe 1309
▁ομάδας 1310
家居 1311
meel 1312
▁1 1313
用户 1314
▁რუ 1315
▁grupė 1316
值 1317
▁Prä 1318
енной 1319
▁belirtti 1320
resh 1321
980 1322
▁PRIM 1323
▁gospod 1324
sprache 1325
스코 1326
▁θέσεις 1327
▁ενεργ 1328
▁dimensioni 1329
▁которому 1330
өрө 1331
uku 1332
▁skarp 1333
进程 1334
законодательства 1335
▁יהודה 1336
R 1337
▁նվիրված 1338
▁risk 1339
▁ऋण 1340
▁PRO 1341
แมน 1342
νση 1343
▁tečaj 1344
▁मंडळ 1345
▁profilak 1346
▁namuose 1347
өз 1348
cor 1349
▁kući 1350
價 1351
▁ziehen 1352
ath 1353
ჰა 1354
▁2013. 1355
▁ұлт 1356
▁ti 1357
kwa 1358
▁Hoxe 1359
▁şef 1360
▁Сот 1361
moodi 1362
garren 1363
▁algus 1364
▁participation 1365
▁ideaal 1366
▁žym 1367
▁조 1368
tsaka 1369
▁directly 1370
有時 1371
ՆԵՐ 1372
▁χ 1373
▁இங்கு 1374
▁Loka 1375
▁қосыл 1376
estero 1377
▁dobar 1378
gwa 1379
mé 1380
▁flirt 1381
Cam 1382
▁noč 1383
▁Analyse 1384
rëve 1385
壽 1386
ይል 1387
▁Bon 1388
▁mord 1389
▁خرج 1390
▁kork 1391
▁Tog 1392
▁عهده 1393
▁szolgáltatások 1394
▁сферы 1395
▁প্রদান 1396
ליק 1397
shop 1398
▁ത്തകള് 1399
原料 1400
ແປ 1401
iausi 1402
▁ئۈچ 1403
▁tunay 1404
୧୩ 1405
ブル 1406
сјед 1407
▁הפס 1408
jord 1409
▁indian 1410
식을 1411
खो 1412
фирм 1413
ବାସ 1414
▁urteko 1415
▁बन्न 1416
men 1417
radi 1418
міністр 1419
▁West 1420
വാസ 1421
ակում 1422
▁Fans 1423
选举 1424
▁silmi 1425
▁Alt 1426
▁Swi 1427
гори 1428
abb 1429
▁ਲੈਣ 1430
▁Letter 1431
▁Tada 1432
▁Leik 1433
▁ingredientes 1434
調 1435
▁กรุณา 1436
蠻 1437
▁شعور 1438
▁mea 1439
◎ 1440
꼬 1441
ເຟສບຸກ 1442
▁фантасти 1443
▁भदौ 1444
орда 1445
▁részére 1446
▁Domnul 1447
▁तिच्या 1448
원이 1449
▁Small 1450
edett 1451
tà 1452
▁Nytt 1453
ðar 1454
▁sum 1455
▁kompetanse 1456
▁φ 1457
णु 1458
گۇ 1459
ตั้งอยู่ 1460
▁Má 1461
▁कमल 1462
▁(35) 1463
has 1464
▁diyeta 1465
್ತಾ 1466
tuvo 1467
ەتتى 1468
▁achega 1469
福 1470
ендер 1471
可靠 1472
vänlig 1473
pflege 1474
ı 1475
三角 1476
▁Ła 1477
್ರ 1478
▁culori 1479
▁sfida 1480
SKU 1481
▁Koro 1482
▁великим 1483
▁എത്ത 1484
▁ድር 1485
▁pişt 1486
▁kialakítás 1487
KUP 1488
▁tuolla 1489
▁кноп 1490
ភ្ជាប់ 1491
rg 1492
▁आणखी 1493
▁bekezdés 1494
教材 1495
▁явдал 1496
▁kéz 1497
菜 1498
▁גור 1499
▁kurtar 1500
联合国 1501
ліс 1502
▁Muhammad 1503
학년 1504
linjen 1505
sioon 1506
Cũng 1507
▁kuliah 1508
▁(33) 1509
室内 1510
▁stau 1511
▁ඉදි 1512
▁pokoje 1513
▁color 1514
▁accetta 1515
▁جنګ 1516
viez 1517
անիշ 1518
▁Počas 1519
▁ci 1520
Mi 1521
▁ದಿನಗಳ 1522
Norge 1523
▁prestation 1524
rić 1525
▁කිරි 1526
替代 1527
ႀက 1528
変わって 1529
sajili 1530
▁Diễn 1531
▁истакна 1532
華 1533
▁మాట్లాడుతూ 1534
▁לצאת 1535
▁1997 1536
empaa 1537
▁mahakama 1538
iarratas 1539
tese 1540
▁Sjekk 1541
▁жигит 1542
▁rest 1543
лец 1544
▁mreže 1545
▁logement 1546
ರಾಗ 1547
ْ 1548
cum 1549
▁Twoje 1550
▁Come 1551
კან 1552
▁Zelen 1553
mina 1554
skabet 1555
▁growing 1556
▁reklamy 1557
▁результати 1558
dogo 1559
▁uten 1560
דירה 1561
பார 1562
▁مشخصات 1563
▁recita 1564
▁malih 1565
▁паказ 1566
oh 1567
▁ব্যবস্থা 1568
▁montre 1569
▁eşit 1570
▁kesken 1571
▁kurus 1572
▁Põ 1573
re 1574
▁So 1575
▁developer 1576
▁дуп 1577
▁jaman 1578
▁drošības 1579
GOS 1580
▁Ecclesiae 1581
▁पत 1582
mainīt 1583
▁даяр 1584
ٽڪ 1585
▁unaweza 1586
rí 1587
在一个 1588
ֲ 1589
▁традицій 1590
▁dovuto 1591
才能 1592
▁Івана 1593
▁maahan 1594
约 1595
▁ქარ 1596
feed 1597
เป้าหมาย 1598
КОМ 1599
U 1600
ME 1601
niczych 1602
▁203 1603
▁نان 1604
▁compagnie 1605
第二 1606
ደርስ 1607
▁VPN 1608
sjö 1609
luğunu 1610
▁parim 1611
גדר 1612
▁egyszerűen 1613
long 1614
▁نیرو 1615
▁fəal 1616
qo 1617
▁rimelig 1618
▁ေပး 1619
ۇلغان 1620
▁menü 1621
▁vil 1622
مسلم 1623
권 1624
▁qaldı 1625
établissement 1626
▁okupa 1627
▁evne 1628
改 1629
▁ေက်ာ္ 1630
▁السر 1631
فتاح 1632
▁Donnerstag 1633
Co 1634
▁Mọi 1635
▁хэмжээнд 1636
dla 1637
силь 1638
▁gostaria 1639
tto 1640
▁kres 1641
domo 1642
▁중심 1643
법 1644
▁204 1645
▁vprašanja 1646
연합 1647
▁fake 1648
▁şair 1649
రని 1650
▁Coast 1651
informations 1652
צפו 1653
为 1654
lou 1655
ibilità 1656
НОСТ 1657
стон 1658
上海市 1659
▁айында 1660
股东 1661
▁Maanta 1662
▁ಮನೆಯ 1663
▁sikrer 1664
ლოგი 1665
occasione 1666
▁черно 1667
需求 1668
фар 1669
▁මෙහෙම 1670
▁interessere 1671
viesti 1672
▁Hand 1673
▁Etiket 1674
▁straffe 1675
Una 1676
▁gło 1677
茂 1678
▁автомобіль 1679
[ 1680
▁type 1681
▁Ausstellung 1682
▁المواطنين 1683
ก้า 1684
▁shoot 1685
打破 1686
▁основание 1687
▁Akhirnya 1688
▁MP 1689
▁الوضع 1690
▁mājās 1691
冬天 1692
▁kra 1693
LAV 1694
डिया 1695
ಜೀ 1696
難 1697
▁sar 1698
▁dóm 1699
▁коз 1700
▁мани 1701
▁የደ 1702
дает 1703
▁dúvidas 1704
▁אליו 1705
▁poslovne 1706
▁보도 1707
▁langsam 1708
គាំទ្រ 1709
▁místa 1710
▁yapacağı 1711
▁Neft 1712
adevăr 1713
▁Kér 1714
▁Tal 1715
救援 1716
жиж 1717
шук 1718
ボタン 1719
▁පියවර 1720
▁recept 1721
▁sila 1722
▁ταινία 1723
▁They 1724
▁بنسټ 1725
▁Uh 1726
▁tiesību 1727
nde 1728
laga 1729
▁ಸರ್ಕಾರಿ 1730
▁10% 1731
▁หน้าแรก 1732
▁Mil 1733
କରଣ 1734
▁ഉപയോഗിക്ക 1735
▁siguranta 1736
▁läge 1737
▁Защото 1738
▁pełne 1739
▁{ 1740
▁Đào 1741
▁תח 1742
なら 1743
▁vibr 1744
לשון 1745
▁doncs 1746
dina 1747
▁Mao 1748
▁solgt 1749
ımıza 1750
▁ren 1751
▁छाप 1752
היסטוריה 1753
▁foco 1754
िस्ट 1755
kre 1756
baad 1757
周末 1758
▁โดยเฉพาะ 1759
blom 1760
▁тоқта 1761
其他的 1762
▁കുട 1763
▁rejimi 1764
tamisen 1765
骑 1766
ਗਲ 1767
▁ಲೋಕ 1768
▁ప్రకటించ 1769
owi 1770
2011 1771
▁súil 1772
rp 1773
▁Kỹ 1774
альны 1775
▁ortiq 1776
класс 1777
ზეც 1778
lui 1779
оўка 1780
▁centenar 1781
▁көрсө 1782
kh 1783
▁Herre 1784
boom 1785
▁Սե 1786
vanda 1787
Mu 1788
ម៉ 1789
▁بدأت 1790
wat 1791
▁трас 1792
therapy 1793
ģis 1794
▁ბიჭ 1795
目を 1796
▁nyde 1797
▁juhla 1798
▁książ 1799
▁ухааны 1800
▁Meg 1801
▁Penal 1802
观点 1803
协 1804
もので 1805
оген 1806
वो 1807
2012 1808
▁Reforma 1809
▁במקרה 1810
▁trụ 1811
種 1812
▁සුව 1813
▁bəy 1814
누 1815
▁bizler 1816
▁school 1817
▁کونسل 1818
kiaľ 1819
nah 1820
▁погоди 1821
加油 1822
▁blá 1823
▁Ham 1824
▁Zudem 1825
▁gaman 1826
▁felelősség 1827
400 1828
ώνα 1829
▁ne 1830
▁fa 1831
▁отдельно 1832
▁policaj 1833
լուսանկարներ 1834
ttuna 1835
▁bewegen 1836
▁oficina 1837
▁recebi 1838
▁tap 1839
3.2 1840
▁Нұр 1841
▁truk 1842
보이 1843
IDADE 1844
tawala 1845
him 1846
▁sál 1847
şir 1848
정을 1849
▁образовательн 1850
▁искате 1851
▁stran 1852
Mə 1853
ilmoqda 1854
سة 1855
▁لکي 1856
▁voix 1857
росс 1858
街 1859
▁alkoholu 1860
▁мускул 1861
nn 1862
్ర 1863
▁त्यसपछि 1864
600 1865
▁구입 1866
▁isagoo 1867
คุณสมบัติ 1868
▁пилот 1869
▁uwagi 1870
liche 1871
▁ulit 1872
▁Double 1873
▁državno 1874
▁તેમજ 1875
▁тобой 1876
▁Administrator 1877
्ड 1878
чких 1879
Kol 1880
▁DV 1881
валось 1882
tas 1883
居 1884
▁server 1885
▁sce 1886
▁finalist 1887
▁administrativ 1888
▁kartus 1889
▁Község 1890
实现 1891
/03 1892
ფოთ 1893
▁obses 1894
▁náklady 1895
▁घेतला 1896
orang 1897
لىنىپ 1898
▁umie 1899
▁Vil 1900
▁rumor 1901
倾 1902
פייסבוק 1903
юри 1904
应该 1905
ক্ষণ 1906
▁suelo 1907
英 1908
ទិញ 1909
ように 1910
▁കുട്ടികള് 1911
iyo 1912
រវាង 1913
设计 1914
▁objaw 1915
IQ 1916
▁Kijk 1917
▁kuza 1918
▁şəxsi 1919
TI 1920
komisjoni 1921
▁дзён 1922
ilen 1923
▁تعامل 1924
▁Күн 1925
▁Saman 1926
sportiv 1927
ತೆಯ 1928
höz 1929
▁игрок 1930
▁Jeder 1931
▁رج 1932
aji 1933
▁primaria 1934
നങ്ങള് 1935
ەتتە 1936
ville 1937
▁Bil 1938
▁Народно 1939
▁noticias 1940
رسید 1941
▁судом 1942
▁Neuro 1943
जात 1944
▁دستی 1945
▁argument 1946
趕 1947
▁bussi 1948
eceğiz 1949
tan 1950
▁вакцин 1951
Pro 1952
σθητ 1953
▁దర్శకుడు 1954
▁ցանկանում 1955
▁dimulai 1956
▁Pavi 1957
▁الهي 1958
annut 1959
▁aurinko 1960
айын 1961
▁hang 1962
рика 1963
▁Naši 1964
▁एफ 1965
▁mihin 1966
▁rahaa 1967
DET 1968
▁kisa 1969
▁Group 1970
고 1971
▁Ihan 1972
SK 1973
വല് 1974
ുള്ളത് 1975
工事 1976
▁pubblicato 1977
ction 1978
▁rong 1979
سود 1980
යො 1981
さえ 1982
ίνω 1983
交通 1984
▁maksaa 1985
▁folgt 1986
▁Picha 1987
▁Posting 1988
กฎ 1989
▁gewisse 1990
uksella 1991
ፁ 1992
Ì 1993
▁Masyarakat 1994
Com 1995
vati 1996
▁دلایل 1997
▁Nur 1998
▁Стран 1999
▁postavlja 2000
▁میوه 2001
具 2002
▁portala 2003
▁crai 2004
▁region 2005
▁ryk 2006
▁sim 2007
မျှ 2008
▁précis 2009
▁status 2010
▁puntual 2011
ტიკა 2012
خصص 2013
ezi 2014
▁satunya 2015
▁Ciao 2016
紅 2017
690 2018
▁культура 2019
▁bei 2020
▁õpetaja 2021
▁tartalma 2022
офи 2023
berger 2024
መላ 2025
亚 2026
▁xoog 2027
生徒 2028
▁þy 2029
נדי 2030
级 2031
▁refere 2032
▁ਸੁਣ 2033
kjørt 2034
ABI 2035
/0 2036
▁ដើម 2037
▁siksi 2038
ကိုး 2039
婚禮 2040
клю 2041
ებების 2042
양 2043
▁niye 2044
签署 2045
▁голямо 2046
▁মনোনয়ন 2047
תרגום 2048
▁janúar 2049
slu 2050
▁përsëri 2051
▁malgranda 2052
nau 2053
▁agentes 2054
タ 2055
▁ibadah 2056
이자 2057
▁Kisah 2058
▁lõpuks 2059
cis 2060
急 2061
մարտ 2062
▁dotyczy 2063
laud 2064
盈利 2065
▁Flora 2066
▁Install 2067
▁welcher 2068
▁qaytar 2069
▁változás 2070
▁беретін 2071
村民 2072
sso 2073
מיים 2074
▁envolve 2075
ložiť 2076
▁φοβ 2077
▁måltid 2078
pe 2079
sil 2080
▁bapak 2081
▁하는 2082
poste 2083
▁comentar 2084
็ง 2085
▁207 2086
▁Envia 2087
▁செய்வ 2088
▁sonu 2089
▁pyörä 2090
▁tissu 2091
اسية 2092
၁၁ 2093
▁وتن 2094
▁wine 2095
▁речовин 2096
专业 2097
ંઘ 2098
ڊي 2099
凉 2100
▁نگرانی 2101
▁కింద 2102
▁Nästa 2103
▁catégorie 2104
▁seine 2105
▁užívateľ 2106
▁giường 2107
▁daarvoor 2108
▁mbaya 2109
▁Ziua 2110
▁برجام 2111
포트 2112
▁প্রা 2113
▁atenta 2114
▁Selama 2115
▁vehículos 2116
▁kirim 2117
▁košík 2118
ვებ 2119
▁Καθ 2120
▁listrik 2121
▁Kone 2122
ਚੀ 2123
로 2124
ous 2125
▁őt 2126
owskiego 2127
täminen 2128
▁դիմում 2129
▁déanta 2130
ત્રી 2131
的相关 2132
▁வருகை 2133
▁ovi 2134
▁昨日 2135
turi 2136
ನ್ನೇ 2137
▁programos 2138
ىلى 2139
रत्न 2140
▁Poli 2141
еста 2142
auksen 2143
gla 2144
▁podporo 2145
名称 2146
▁ດ້ານ 2147
もの 2148
hef 2149
▁भट्टराई 2150
þ 2151
sti 2152
▁ٺاهي 2153
▁أسعار 2154
పోతున్న 2155
▁oila 2156
▁විශ්වාස 2157
▁Musical 2158
▁функционира 2159
komme 2160
alis 2161
/30 2162
자들이 2163
▁vinne 2164
62 2165
▁shteti 2166
▁миг 2167
4,7 2168
CONT 2169
▁feria 2170
▁ţări 2171
▁kel 2172
▁noyabr 2173
ตัดสินใจ 2174
್ತ 2175
ants 2176
▁Фре 2177
મુ 2178
▁demandé 2179
رائي 2180
▁Let 2181
▁INC 2182
▁Świe 2183
▁новости 2184
ഠ 2185
▁foretage 2186
անս 2187
kapi 2188
平日 2189
ंदी 2190
arte 2191
▁ਚੁੱਕ 2192
▁few 2193
▁الدي 2194
อันตราย 2195
人员 2196
▁Timbalan 2197
centa 2198
▁fructe 2199
▁Оқу 2200
▁במרכז 2201
▁bölmə 2202
▁Рак 2203
▁persoanelor 2204
puisto 2205
▁грижи 2206
服装 2207
▁siekia 2208
salu 2209
CE 2210
ໍາ 2211
▁KA 2212
การสร้าง 2213
הגנה 2214
▁Meski 2215
▁Første 2216
▁kasutamise 2217
▁całą 2218
▁كف 2219
čkim 2220
fler 2221
ownik 2222
រួម 2223
▁comunist 2224
яви 2225
▁резултатите 2226
▁lady 2227
ल्यास 2228
▁vari 2229
▁favor 2230
▁ант 2231
യാക 2232
▁маселелер 2233
dum 2234
▁Bekas 2235
узи 2236
schaffen 2237
▁concur 2238
ńska 2239
▁зрител 2240
▁PR 2241
▁vrednost 2242
▁негізінде 2243
锦 2244
▁қатынастар 2245
暇 2246
ನ್ಯಾ 2247
応援 2248
▁hunden 2249
▁voluptas 2250
▁Sir 2251
ISU 2252
▁засоби 2253
not 2254
▁konsolid 2255
kad 2256
▁formou 2257
服 2258
▁اکس 2259
▁μισ 2260
▁өткізу 2261
fear 2262
▁adicional 2263
ittelu 2264
šķi 2265
▁dependent 2266
ենս 2267
луб 2268
▁љуб 2269
▁ιδι 2270
▁उत्पाद 2271
▁ndryshim 2272
▁ఎక్కువగా 2273
▁είχα 2274
▁gitme 2275
▁hisz 2276
▁TK 2277
▁contabil 2278
sunt 2279
▁Krás 2280
্যান 2281
▁какую 2282
▁tutuk 2283
▁гарах 2284
▁breyting 2285
的な 2286
porto 2287
▁projesi 2288
jin 2289
▁persoalan 2290
乏 2291
▁finaliza 2292
▁darbai 2293
勘 2294
▁然而 2295
騰 2296
біл 2297
▁kaq 2298
▁చేస్తూ 2299
siya 2300
▁agradable 2301
▁12:30 2302
▁hrana 2303
IUS 2304
fähr 2305
則 2306
ръс 2307
huan 2308
▁بینک 2309
▁bytu 2310
▁dobio 2311
ada 2312
ჯობ 2313
ificado 2314
▁รอบ 2315
ผู้ที่ 2316
২৮ 2317
▁gadi 2318
的关键 2319
▁zlato 2320
▁турш 2321
ৰী 2322
▁ditën 2323
▁медиа 2324
▁ct 2325
قرر 2326
לף 2327
微 2328
ลี่ 2329
▁හමුදාව 2330
▁συγκεκριμένο 2331
անը 2332
▁no 2333
reg 2334
CER 2335
nedd 2336
▁tervez 2337
ithe 2338
▁түш 2339
▁spät 2340
▁המלא 2341
▁vrsti 2342
▁mida 2343
ుకుంటూ 2344
▁alan 2345
▁slovensko 2346
それぞれの 2347
że 2348
增速 2349
覽 2350
▁katerim 2351
穆 2352
▁kritisk 2353
▁sertifikat 2354
▁anlaşma 2355
kot 2356
▁قبض 2357
▁നേടിയ 2358
▁пах 2359
▁europeisk 2360
▁ڪپ 2361
ACI 2362
▁Martina 2363
▁tunnus 2364
▁aysan 2365
▁Keskus 2366
付 2367
eacha 2368
owo 2369
▁duración 2370
▁క్ల 2371
▁graži 2372
espace 2373
▁üveg 2374
▁السب 2375
配 2376
зици 2377
▁уряд 2378
▁Prvo 2379
utveckling 2380
▁חומ 2381
▁Ž 2382
ագրություն 2383
▁ಮಟ್ಟ 2384
▁කවි 2385
▁passe 2386
angle 2387
കേ 2388
mh 2389
▁позив 2390
▁статья 2391
▁Aval 2392
▁RFE 2393
вс 2394
▁intresserad 2395
▁පෙන්න 2396
▁valik 2397
በራ 2398
niki 2399
վեցին 2400
ኦሮሞ 2401
LI 2402
õhk 2403
▁동의 2404
EIN 2405
▁earth 2406
知识产权 2407
▁დაგ 2408
imet 2409
▁მესამე 2410
板 2411
▁vplyv 2412
IP 2413
ሁን 2414
▁энергии 2415
▁around 2416
обща 2417
ىسىنىڭ 2418
接著 2419
▁الحركة 2420
▁aktivity 2421
▁estus 2422
▁Mur 2423
▁شبه 2424
▁харагд 2425
ますので 2426
запад 2427
▁квалификации 2428
340 2429
මී 2430
▁разве 2431
▁populær 2432
▁Ditt 2433
ของคน 2434
దేశ 2435
▁കഴിക്ക 2436
АЛЬ 2437
▁татко 2438
▁content 2439
▁Yuk 2440
▁offrir 2441
▁risti 2442
▁wood 2443
osztás 2444
▁matematika 2445
קטור 2446
▁თამაშ 2447
▁yolunda 2448
37 2449
▁موجودہ 2450
zał 2451
finanz 2452
▁tehnologije 2453
ච්චි 2454
▁atento 2455
▁পদ 2456
▁dhaawac 2457
▁Daripada 2458
▁h 2459
▁Nicolae 2460
ongea 2461
dne 2462
▁سامنا 2463
▁стопа 2464
aisiais 2465
лесно 2466
注文 2467
▁ছ 2468
idi 2469
▁DELFI 2470
ındır 2471
系 2472
nap 2473
чност 2474
▁rep 2475
▁κόσμος 2476
▁Spa 2477
sindən 2478
▁Dz 2479
▁այլն 2480
ФО 2481
▁pantalon 2482
▁desberdin 2483
▁зачем 2484
▁Practic 2485
延伸 2486
▁tokiu 2487
ological 2488
ఫె 2489
▁ذیل 2490
ières 2491
роид 2492
▁खुला 2493
▁faci 2494
▁Verkehrs 2495
放棄 2496
▁nominal 2497
▁cuir 2498
實 2499
jandi 2500
▁agente 2501
▁positivt 2502
▁ESTES 2503
河 2504
▁نقطة 2505
بصر 2506
ken 2507
▁سوء 2508
ଛୁ 2509
▁corona 2510
रिक 2511
pati 2512
cessit 2513
teste 2514
▁software 2515
▁spate 2516
主動 2517
▁rău 2518
▁ශිෂ් 2519
▁سنتی 2520
▁успеха 2521
▁ráda 2522
▁እርሱ 2523
▁hr 2524
▁tavara 2525
intérieur 2526
▁Laden 2527
▁աշխատանք 2528
▁ผ้า 2529
▁近日 2530
▁человеком 2531
▁cvič 2532
váz 2533
▁חסר 2534
▁οικονομική 2535
чае 2536
▁تاش 2537
▁होऊ 2538
痕 2539
搖 2540
票 2541
走进 2542
誌 2543
のことを 2544
撥 2545
ที่เคย 2546
▁freundlich 2547
सम्पादन 2548
ជនសង្ស័យ 2549
▁Mozilla 2550
▁buang 2551
となり 2552
prema 2553
▁التدريب 2554
▁boli 2555
зві 2556
▁sex 2557
38 2558
▁հող 2559
▁सीएम 2560
▁alí 2561
▁사용 2562
ძა 2563
▁منجر 2564
▁መለስ 2565
▁2-3 2566
▁වාර්තාව 2567
▁lënë 2568
▁MEDI 2569
▁venne 2570
înd 2571
▁umeme 2572
stoel 2573
▁1880 2574
ZAK 2575
attuale 2576
▁premiér 2577
eux 2578
3.7 2579
드립니다 2580
▁tomat 2581
▁ætti 2582
זין 2583
▁previa 2584
: 2585
▁of 2586
▁single 2587
▁قوی 2588
prä 2589
问 2590
یټ 2591
荡 2592
溜 2593
▁tår 2594
芽 2595
釣 2596
រាជធានីភ្នំពេញ 2597
接受 2598
▁Coffee 2599
▁Kështu 2600
▁경우 2601
▁firenena 2602
▁eso 2603
▁Indica 2604
▁imposible 2605
▁اچھا 2606
▁ਚੋਣਾਂ 2607
▁volen 2608
▁хоць 2609
▁պայման 2610
rov 2611
▁természetesen 2612
及 2613
▁Kera 2614
▁горад 2615
医药 2616
ional 2617
▁Όσο 2618
拍 2619
حار 2620
การจัดการ 2621
الح 2622
▁past 2623
५० 2624
gl 2625
▁xinh 2626
▁jiraan 2627
スタン 2628
▁programación 2629
▁उड 2630
▁environnement 2631
▁massima 2632
口感 2633
warna 2634
▁qu 2635
▁Roz 2636
expérience 2637
▁ತಾಯಿ 2638
▁Nach 2639
دس 2640
▁Služb 2641
▁industri 2642
▁Sergio 2643
排除 2644
▁Gill 2645
kode 2646
▁Oferta 2647
▁Monica 2648
支払 2649
لاند 2650
▁funcionario 2651
▁jogi 2652
▁krävs 2653
▁edildikdə 2654
▁συμφων 2655
▁বিচার 2656
▁արձանագր 2657
▁majoritatea 2658
cle 2659
geschichte 2660
ложить 2661
▁શક્ય 2662
– 2663
▁상 2664
▁genannt 2665
lai 2666
dary 2667
နက် 2668
ניג 2669
-20 2670
RCA 2671
kasika 2672
▁cost 2673
▁konata 2674
gence 2675
ંસ 2676
mium 2677
parlament 2678
eh 2679
حذر 2680
▁mobilní 2681
पूर्व 2682
▁firm 2683
▁দাবি 2684
ระบุ 2685
LEA 2686
ÓW 2687
▁محتوای 2688
▁развоја 2689
AB 2690
кія 2691
▁23 2692
aigh 2693
▁професионални 2694
ନର 2695
▁cipta 2696
միջոց 2697
eanu 2698
▁نکرد 2699
isert 2700
fici 2701
法治 2702
เข้าสู่ 2703
▁drumul 2704
ligheten 2705
▁худалдаа 2706
メリット 2707
soy 2708
▁neder 2709
▁especiais 2710
▁سماعت 2711
lica 2712
▁Gerçek 2713
ختار 2714
rib 2715
▁uchumi 2716
▁dimentica 2717
cker 2718
he 2719
jum 2720
▁անձի 2721
ONO 2722
اٹ 2723
▁chips 2724
ገበያ 2725
ичан 2726
dé 2727
▁lana 2728
▁topatu 2729
ເກັບ 2730
ئٹ 2731
▁heldu 2732
▁Neu 2733
▁Рада 2734
▁умира 2735
而 2736
wang 2737
tekin 2738
ганы 2739
▁Trans 2740
▁foreign 2741
违 2742
▁Vše 2743
ollywood 2744
▁спр 2745
kop 2746
▁Leser 2747
▁искрен 2748
▁complement 2749
在今年 2750
▁Βι 2751
iam 2752
▁районе 2753
నెట్ 2754
▁ner 2755
▁Rechte 2756
▁^_^ 2757
ingu 2758
▁temple 2759
▁órgão 2760
πια 2761
▁earlier 2762
▁egyéni 2763
▁mar 2764
anno 2765
சர 2766
程 2767
▁horário 2768
yd 2769
၁၀ 2770
▁2020 2771
تذكر 2772
以下 2773
▁algunhas 2774
کلی 2775
248 2776
▁அழக 2777
भिः 2778
aaaa 2779
ledningen 2780
▁pewne 2781
όλι 2782
praktik 2783
▁korri 2784
gún 2785
▁ಅಧಿಕಾರ 2786
與 2787
RIC 2788
▁förhållande 2789
▁nejaké 2790
▁чергу 2791
▁palkka 2792
▁Kul 2793
ロン 2794
rinda 2795
▁sekretari 2796
▁вака 2797
շնորհ 2798
▁espiritual 2799
kkejä 2800
massa 2801
▁наявності 2802
nna 2803
▁ਬਦਲ 2804
▁സംഗീത 2805
site 2806
ممارسة 2807
▁деяких 2808
▁संदेश 2809
▁naprosto 2810
▁місяців 2811
とは 2812
▁pemuda 2813
▁අරන් 2814
▁Trafik 2815
▁lapte 2816
ERIA 2817
▁assassin 2818
▁یار 2819
▁바 2820
มิน 2821
▁prakse 2822
felé 2823
กล่าวว่า 2824
還是 2825
人力 2826
▁moms 2827
נש 2828
ก็ยัง 2829
▁feitas 2830
常に 2831
하던 2832
HIN 2833
de 2834
▁Men 2835
▁знают 2836
डू 2837
▁zait 2838
▁재 2839
тото 2840
raju 2841
▁usi 2842
▁PA 2843
▁intet 2844
帯 2845
杂志 2846
▁эв 2847
爺 2848
وقوف 2849
解釋 2850
▁примени 2851
ийгмийн 2852
▁Αυγούστου 2853
▁40 2854
ଠାରେ 2855
▁Derecho 2856
▁mira 2857
▁разгледа 2858
▁عالي 2859
▁ඕක 2860
szolgáltató 2861
▁خلاصه 2862
dzę 2863
duire 2864
▁SUR 2865
pustili 2866
יטי 2867
ロ 2868
▁срам 2869
▁בפר 2870
▁taula 2871
▁kindla 2872
▁діл 2873
ná 2874
島 2875
wszy 2876
PEL 2877
ваўся 2878
assa 2879
▁Sejak 2880
▁upravljanje 2881
▁stede 2882
▁जरूरत 2883
▁Markus 2884
発生 2885
▁pangan 2886
eiro 2887
▁содержание 2888
▁Думаю 2889
dhani 2890
וכים 2891
▁कोष 2892
▁öne 2893
借錢 2894
▁Sachen 2895
▁твоя 2896
ахад 2897
▁любви 2898
▁याच 2899
▁naudu 2900
▁maximal 2901
▁dizaine 2902
رول 2903
бю 2904
▁začetku 2905
gno 2906
▁קבלת 2907
СЫ 2908
▁чадахгүй 2909
▁spins 2910
▁tè 2911
▁скажу 2912
▁şeker 2913
控制 2914
▁ಮತ 2915
占 2916
當天 2917
σος 2918
▁المص 2919
llisuutta 2920
▁člana 2921
▁drar 2922
上海 2923
▁komentira 2924
ಯವರ 2925
▁sayo 2926
▁monde 2927
▁знали 2928
▁potentiel 2929
จอด 2930
erien 2931
▁ගම් 2932
▁melyet 2933
▁equipamentos 2934
▁natur 2935
屏幕 2936
▁সাংবাদিক 2937
▁huolimatta 2938
lev 2939
▁afhangend 2940
▁všeobecn 2941
▁Inn 2942
▁бүлэг 2943
余 2944
▁ОХУ 2945
▁जमीन 2946
ஹ் 2947
可以用 2948
കൊണ്ട് 2949
▁отметил 2950
身材 2951
quadra 2952
▁peta 2953
▁Запо 2954
▁Deus 2955
▁ፓ 2956
▁59 2957
▁nhàng 2958
▁yanzu 2959
สเตอร์ 2960
välja 2961
间 2962
וסף 2963
જ્ઞાન 2964
uko 2965
进展 2966
тички 2967
你知道 2968
▁حقوقی 2969
▁ప్రజలు 2970
ର୍କ 2971
▁SMS 2972
▁העבר 2973
▁Stick 2974
▁długi 2975
ragan 2976
iyalı 2977
▁alian 2978
▁하 2979
▁одржан 2980
svjež 2981
▁мав 2982
▁вест 2983
▁痞客邦 2984
лоб 2985
▁sõbra 2986
▁അവര 2987
xie 2988
強く 2989
▁pal 2990
teadus 2991
▁Іс 2992
ಒ 2993
önd 2994
▁läser 2995
społeczn 2996
▁voler 2997
帆 2998
▁melden 2999
▁online 3000
▁Zobraziť 3001
▁Министерства 3002
博 3003
▁Русији 3004
εσαι 3005
▁៩ 3006
dering 3007
▁mät 3008
UL 3009
vuotias 3010
▁durchaus 3011
▁fit 3012
▁الأع 3013
гиб 3014
基金會 3015
有不少 3016
▁klus 3017
▁Άν 3018
rdi 3019
▁faqen 3020
▁kézi 3021
▁yi 3022
храни 3023
▁Skrif 3024
▁ex 3025
▁большим 3026
▁São 3027
▁MU 3028
תור 3029
▁ստորագր 3030
മല 3031
غار 3032
ādē 3033
džer 3034
▁Kemp 3035
▁Obec 3036
▁ofrecen 3037
መጀመሪያ 3038
Փ 3039
▁italian 3040
存 3041
▁orasida 3042
炼 3043
▁үндэс 3044
▁vanno 3045
ማንኛውም 3046
▁atsiliep 3047
▁high 3048
Ho 3049
▁ներառ 3050
богат 3051
▁extension 3052
▁астам 3053
▁အသက္ 3054
十 3055
▁Pha 3056
▁Edgar 3057
▁Начин 3058
selt 3059
▁skuad 3060
행 3061
кір 3062
▁ስል 3063
▁y 3064
han 3065
▁šū 3066
▁hatékony 3067
▁рожден 3068
fon 3069
▁Mei 3070
solo 3071
▁reta 3072
▁prices 3073
dell 3074
▁مذ 3075
īcija 3076
▁Not 3077
▁yolunu 3078
申し 3079
▁альбо 3080
▁biryar 3081
▁この 3082
▁wenza 3083
▁проведение 3084
점 3085
▁frek 3086
▁колдо 3087
▁fordít 3088
cca 3089
ഒരു 3090
kreft 3091
aj 3092
మంది 3093
▁ważny 3094
▁gener 3095
▁---- 3096
lipo 3097
▁منصوب 3098
ၤ 3099
กรุงเทพ 3100
▁Fan 3101
▁Medi 3102
▁První 3103
▁Argument 3104
▁visa 3105
▁swo 3106
▁경찰 3107
▁livsstil 3108
▁ألا 3109
WA 3110
▁wyjazd 3111
րտ 3112
▁ಪ್ರಕಟ 3113
▁ipsius 3114
▁тихо 3115
ldi 3116
▁tiče 3117
тражи 3118
▁uit 3119
▁Kontrolle 3120
▁усп 3121
gyan 3122
kata 3123
▁פּאַ 3124
angan 3125
▁sonde 3126
▁српских 3127
一股 3128
ψαν 3129
δων 3130
▁sanit 3131
▁(36) 3132
eer 3133
▁Halle 3134
íny 3135
▁geri 3136
▁herramienta 3137
我自己 3138
▁көлік 3139
▁системата 3140
▁ας 3141
kara 3142
▁medicament 3143
вард 3144
das 3145
ották 3146
▁cek 3147
気 3148
不便 3149
▁நட 3150
党员 3151
čih 3152
▁Ciri 3153
Qəbələ 3154
关系 3155
▁Comhairle 3156
▁Tätigkeit 3157
koa 3158
▁послове 3159
▁szombat 3160
מלחמה 3161
▁дамуы 3162
▁Треба 3163
kem 3164
▁partita 3165
茶 3166
▁پرویز 3167
▁закр 3168
▁함께 3169
▁tusen 3170
опт 3171
▁isteme 3172
▁skur 3173
dala 3174
បុ 3175
πως 3176
▁όρο 3177
ცო 3178
▁skill 3179
▁blaen 3180
ရိုက် 3181
▁sprawdza 3182
liyinin 3183
sztott 3184
▁Ye 3185
▁dijous 3186
これで 3187
▁325 3188
τερη 3189
▁жұмыстары 3190
▁How 3191
▁Astra 3192
外国人 3193
rání 3194
▁213 3195
abileceğiniz 3196
▁identidade 3197
▁schwierig 3198
9 3199
▁66 3200
काे 3201
kasvatus 3202
▁خم 3203
望 3204
▁ярилц 3205
▁filio 3206
饮 3207
logen 3208
兹 3209
▁wiadomo 3210
▁Boeing 3211
omis 3212
▁spesiell 3213
תמיכה 3214
▁नंतर 3215
nda 3216
τος 3217
▁विजयी 3218
foi 3219
adda 3220
▁bolest 3221
kry 3222
raud 3223
权力 3224
fón 3225
エ 3226
▁egyház 3227
▁కేంద్రం 3228
▁ਆਖ 3229
▁차량 3230
৪০ 3231
ධාර 3232
▁ಬಳಸಿ 3233
▁අන් 3234
▁redaktita 3235
4% 3236
▁oddział 3237
хоо 3238
▁totally 3239
▁وست 3240
▁velikost 3241
eftirlit 3242
のための 3243
▁заряд 3244
▁위해 3245
这项 3246
توان 3247
小 3248
▁educativo 3249
▁especializado 3250
▁mogu 3251
▁mynda 3252
のではないか 3253
▁prospekt 3254
▁traumat 3255
kupi 3256
▁Ποι 3257
甚麼 3258
參觀 3259
▁термо 3260
威而鋼 3261
肌肉 3262
ປະກອບ 3263
קבוצות 3264
▁responsabilità 3265
ರೆಯ 3266
okok 3267
▁Nüüd 3268
▁male 3269
▁slegs 3270
കുമാര 3271
▁ju 3272
▁tudás 3273
▁nunc 3274
ською 3275
▁Viel 3276
▁автори 3277
▁Колко 3278
▁hoef 3279
들도 3280
▁pust 3281
▁požar 3282
▁direktori 3283
лёт 3284
元気 3285
▁kapasite 3286
▁Religi 3287
îtî 3288
▁Jule 3289
▁پزشک 3290
하지 3291
▁gösteren 3292
ملك 3293
njih 3294
एसपी 3295
下 3296
▁ME 3297
86) 3298
▁металл 3299
▁बहन 3300
▁Giro 3301
▁Crime 3302
kės 3303
▁hrein 3304
วิว 3305
▁bhai 3306
▁Julio 3307
伍 3308
پاکستان 3309
▁Tết 3310
廟 3311
▁አፍ 3312
רשטאג 3313
▁यसअघि 3314
底 3315
▁корот 3316
▁klop 3317
hlad 3318
▁Beim 3319
▁седмици 3320
▁play 3321
▁расходы 3322
обо 3323
▁Có 3324
▁maoni 3325
▁okrog 3326
غیر 3327
นวด 3328
ફા 3329
▁valóság 3330
▁мужчын 3331
▁obtain 3332
מפגש 3333
▁кампания 3334
▁ಹುಟ್ಟ 3335
▁amico 3336
▁Gaan 3337
西藏 3338
▁Goran 3339
▁кажем 3340
▁commencer 3341
ถา 3342
hu 3343
▁операцій 3344
▁Organizator 3345
▁toţi 3346
活动的 3347
ግጥ 3348
▁کاش 3349
好看 3350
▁Abel 3351
jad 3352
സ്ഥിതി 3353
▁εκδ 3354
回忆 3355
会出现 3356
糊 3357
ுதல் 3358
bedrijf 3359
▁Shakespeare 3360
▁համայնքի 3361
▁पराजित 3362
▁Perempuan 3363
DUR 3364
▁섹스 3365
▁फी 3366
يئر 3367
ғым 3368
▁인생 3369
▁ګډ 3370
▁مرجع 3371
▁AB 3372
▁הברית 3373
prenant 3374
kup 3375
äkin 3376
りする 3377
YAR 3378
▁worm 3379
▁dále 3380
նայ 3381
▁Soru 3382
▁એસ 3383
ameti 3384
▁Ú 3385
Hol 3386
387 3387
▁špič 3388
▁laku 3389
збе 3390
▁ගල් 3391
▁හැද 3392
जना 3393
▁robot 3394
ájában 3395
ባዊ 3396
anayo 3397
▁Tour 3398
▁نیٹ 3399
▁skal 3400
ರ್ಯ 3401
▁olmaya 3402
్రా 3403
▁абарон 3404
▁Dil 3405
▁boldog 3406
স্প 3407
spel 3408
▁ID 3409
▁bang 3410
▁Yardım 3411
按 3412
` 3413
▁state 3414
▁Jimmy 3415
▁මුළු 3416
▁kumma 3417
▁always 3418
▁Statut 3419
▁geluk 3420
▁fauna 3421
ಖಾ 3422
▁Paşa 3423
TG 3424
Mai 3425
▁کوریا 3426
▁Best 3427
▁rekre 3428
▁intervention 3429
ZIA 3430
▁kartais 3431
▁행정 3432
▁رە 3433
▁Фін 3434
▁emosi 3435
▁fick 3436
▁глаз 3437
▁ehtiyac 3438
▁likt 3439
▁müharibə 3440
rata 3441
алося 3442
▁Ka 3443
unu 3444
▁uskon 3445
ացավ 3446
▁procure 3447
jille 3448
化學 3449
▁Коп 3450
нуло 3451
may 3452
▁Иса 3453
▁qofka 3454
▁privateco 3455
στες 3456
▁பாதுகாப்பு 3457
▁কত 3458
▁Play 3459
▁accoglie 3460
▁conflit 3461
rūs 3462
▁întreg 3463
գին 3464
▁кызык 3465
转 3466
▁kêu 3467
ਤਮ 3468
▁المسؤول 3469
zim 3470
▁σκληρ 3471
▁மோடி 3472
ær 3473
▁اداري 3474
mån 3475
▁Σα 3476
▁Energe 3477
红 3478
▁모습을 3479
▁طويلة 3480
▁appartamento 3481
▁Δρ 3482
mpi 3483
▁tegema 3484
▁милион 3485
үт 3486
▁inniu 3487
▁каком 3488
ado 3489
ιότητα 3490
itinerari 3491
▁одигра 3492
材質 3493
相关 3494
▁sugan 3495
реал 3496
▁ekonomika 3497
▁масла 3498
▁Ilyen 3499
▁services 3500
▁gazdaság 3501
滞 3502
▁хүлээ 3503
レ 3504
▁bicikl 3505
▁шок 3506
▁passer 3507
▁حاکم 3508
洗 3509
▁reported 3510
▁varsta 3511
pest 3512
▁Yleis 3513
inti 3514
▁najlepszy 3515
▁sk 3516
▁Scu 3517
գու 3518
glejte 3519
▁conosce 3520
▁verificar 3521
沒 3522
ௌ 3523
均 3524
▁uongozi 3525
Ç 3526
▁تقاضا 3527
▁promjene 3528
▁jälgi 3529
▁두 3530
教會 3531
بعة 3532
▁strategy 3533
▁कोणी 3534
cka 3535
▁Magistr 3536
▁grazas 3537
AI 3538
▁cuidar 3539
▁version 3540
myndigheten 3541
んですよ 3542
dos 3543
更加 3544
skutečn 3545
▁jogurt 3546
▁сусед 3547
理解 3548
वेश 3549
▁друку 3550
kha 3551
уша 3552
▁mellorar 3553
▁obje 3554
ијског 3555
▁buluş 3556
▁dřev 3557
▁vehículo 3558
лён 3559
▁Team 3560
▁maty 3561
hit 3562
ивно 3563
▁du 3564
nak 3565
▁apartman 3566
▁sister 3567
的变化 3568
តូច 3569
我们就 3570
审计 3571
▁التس 3572
腾讯 3573
辺 3574
президент 3575
▁Sähkö 3576
▁stress 3577
▁караганда 3578
▁Dziś 3579
▁жашы 3580
maqla 3581
▁automat 3582
گذاری 3583
▁Поста 3584
记者 3585
することを 3586
TUL 3587
▁forskel 3588
sho 3589
uðum 3590
lberg 3591
បើក 3592
▁mệt 3593
polni 3594
boken 3595
ತೆಗೆ 3596
见 3597
▁contributo 3598
ڌو 3599
인가 3600
hara 3601
▁ເຂົາ 3602
▁제한 3603
БС 3604
▁typ 3605
выкана 3606
izace 3607
खिल 3608
▁kum 3609
ಾಂತ 3610
ildi 3611
▁gáz 3612
ませ 3613
punerea 3614
▁mer 3615
animation 3616
визија 3617
▁older 3618
Code 3619
來了 3620
owaną 3621
▁Termo 3622
कालीन 3623
▁жыйын 3624
悅 3625
จุดด่างดํา 3626
▁prekybos 3627
▁Comments 3628
▁цвета 3629
▁Đi 3630
▁Acht 3631
forsk 3632
զան 3633
▁sig 3634
raf 3635
▁کیو 3636
▁השנים 3637
ரம 3638
▁Votre 3639
▁Tumi 3640
аасаа 3641
▁file 3642
forbrug 3643
▁Learning 3644
▁rīt 3645
▁បន្ថែម 3646
2010 3647
▁diari 3648
▁(40 3649
ઈન 3650
▁Nebo 3651
popular 3652
ராம் 3653
▁(9) 3654
▁مستمر 3655
kken 3656
روف 3657
▁sāka 3658
aza 3659
▁नियुक्त 3660
guli 3661
▁қарасты 3662
▁මාර්ගය 3663
▁ressources 3664
ټې 3665
▁пошта 3666
näitus 3667
▁ትውልድ 3668
fur 3669
järve 3670
▁krah 3671
▁zetu 3672
tonta 3673
ضيع 3674
dýr 3675
টের 3676
▁പ്രശ് 3677
▁Kvinner 3678
▁Dw 3679
▁hegy 3680
▁kalkul 3681
▁мужчина 3682
DSL 3683
▁Satz 3684
▁konferans 3685
tóir 3686
瑟 3687
▁dh 3688
辰 3689
ව්ව 3690
ങ്ങനെ 3691
▁oferir 3692
ឱកាស 3693
!! 3694
成為 3695
глянути 3696
▁աշխատանքային 3697
▁Här 3698
▁деякі 3699
▁معاملہ 3700
بسيط 3701
▁prijave 3702
zag 3703
▁enese 3704
捷運 3705
▁PLUS 3706
▁بوی 3707
materiale 3708
▁قىلىنغان 3709
▁Veter 3710
▁Noël 3711
▁Abe 3712
▁бөлүм 3713
▁причем 3714
эра 3715
会 3716
iku 3717
▁erstatte 3718
▁странице 3719
▁xay 3720
▁sui 3721
▁işə 3722
MAL 3723
▁offrire 3724
▁voditelj 3725
▁מסת 3726
▁รอง 3727
cția 3728
ценка 3729
ündə 3730
mics 3731
▁gesamte 3732
色的 3733
dil 3734
▁Због 3735
▁port 3736
কট 3737
wish 3738
▁óg 3739
▁المدني 3740
▁거 3741
▁установе 3742
▁entre 3743
ිණි 3744
▁האישי 3745
8° 3746
gjör 3747
▁Alþingi 3748
▁sale 3749
周边 3750
▁speciellt 3751
▁kullanarak 3752
ն՝ 3753
kolle 3754
▁अर्थात 3755
▁ticaret 3756
▁fire 3757
ישה 3758
▁Cir 3759
▁svakako 3760
▁Mujh 3761
קוב 3762
▁potenzia 3763
▁adesso 3764
歌 3765
▁वर्षमा 3766
യാണ 3767
考える 3768
owców 3769
▁Moder 3770
精選 3771
▁salida 3772
▁ibig 3773
sszük 3774
▁vrednosti 3775
▁joilla 3776
▁butikker 3777
▁šele 3778
本來 3779
▁nicio 3780
HA 3781
īnā 3782
setti 3783
▁የህ 3784
ാക്കിയ 3785
əcə 3786
kari 3787
▁семья 3788
νουμε 3789
▁등장 3790
▁pasti 3791
▁süs 3792
▁კომენტარი 3793
gol 3794
ვდი 3795
▁IPS 3796
ministr 3797
ción 3798
▁camp 3799
▁ռուս 3800
лэж 3801
ប៉ុណ្ណោះ 3802
▁ibu 3803
▁jautājums 3804
สนามบิน 3805
▁успіх 3806
▁Terdapat 3807
▁innskudd 3808
▁factores 3809
▁სხეულ 3810
▁לכתוב 3811
▁amor 3812
▁nagrade 3813
onio 3814
مەس 3815
▁Teljes 3816
▁szakasz 3817
=5 3818
viste 3819
▁termes 3820
▁2 3821
ene 3822
▁പഠിക്ക 3823
ջի 3824
aiky 3825
ique 3826
андык 3827
▁ລ້ານ 3828
▁Rs 3829
▁지정 3830
▁povus 3831
▁Nora 3832
▁verilmiş 3833
sever 3834
▁Kvinne 3835
▁Mwa 3836
▁libre 3837
▁Straf 3838
cipe 3839
▁кіру 3840
WR 3841
irajo 3842
▁Walk 3843
▁oggetto 3844
▁MO 3845
▁хам 3846
▁Psycholog 3847
ೆಲ್ಲಾ 3848
ीने 3849
▁lin 3850
▁ഉമ്മ 3851
umist 3852
▁денови 3853
ÉK 3854
аттуу 3855
▁tra 3856
遠 3857
▁apresentado 3858
▁gaaray 3859
書籍 3860
▁විම 3861
▁ਕਰੋੜ 3862
😂 3863
▁rei 3864
밴 3865
▁Pilipino 3866
▁Matthew 3867
ເຂົ້າຫາ 3868
▁(5 3869
▁ANO 3870
▁cv 3871
4-1 3872
▁המקום 3873
CAM 3874
พนัน 3875
plasser 3876
▁inyong 3877
▁наследство 3878
kar 3879
▁ph 3880
▁taşın 3881
▁better 3882
▁breg 3883
▁schools 3884
izazio 3885
▁materiaali 3886
▁קע 3887
▁chcem 3888
Ú 3889
▁története 3890
▁देशभर 3891
▁هاڻ 3892
▁серце 3893
▁ನೋಟ 3894
▁цене 3895
عامل 3896
δημο 3897
ईन 3898
ദം 3899
워 3900
applique 3901
▁messa 3902
teista 3903
▁니 3904
▁Lara 3905
тици 3906
ٽائي 3907
▁vy 3908
▁song 3909
▁සුබ 3910
aste 3911
▁легенда 3912
ament 3913
위원 3914
▁suhte 3915
▁Formació 3916
▁ქუჩა 3917
▁ierobežo 3918
чести 3919
臉書 3920
▁elsősorban 3921
投 3922
▁ຊາ 3923
വന്ന 3924
▁condus 3925
游戏 3926
▁شوق 3927
▁Komitəsinin 3928
▁ربما 3929
61 3930
▁beer 3931
▁priprema 3932
▁Az 3933
學生 3934
▁३५ 3935
рге 3936
▁создава 3937
▁सेयर 3938
▁Venezia 3939
▁etapas 3940
▁hár 3941
最早 3942
▁అందరి 3943
פלא 3944
▁నాలుగు 3945
udo 3946
▁وعده 3947
XXX 3948
▁ယခု 3949
43 3950
▁युग 3951
முக 3952
vert 3953
若い 3954
▁vakit 3955
lectiu 3956
ção 3957
UPA 3958
ლოდ 3959
▁pošto 3960
▁soviet 3961
▁Tsar 3962
▁במי 3963
▁gerð 3964
શું 3965
▁Col 3966
▁Maine 3967
енс 3968
אכט 3969
▁Daniel 3970
والی 3971
cogni 3972
▁Pär 3973
▁vrat 3974
▁Egyesület 3975
你想 3976
▁አስፈላጊ 3977
正在 3978
lampa 3979
▁организације 3980
▁हवाई 3981
ədək 3982
ป้าย 3983
古代 3984
▁voilà 3985
▁rijden 3986
터 3987
-4 3988
▁потребители 3989
▁flink 3990
▁ಜೋ 3991
ugur 3992
ആര് 3993
qe 3994
▁asegurar 3995
øvelse 3996
leit 3997
ിലേക്കു 3998
爾 3999
▁ställa 4000
zo 4001
ეცა 4002
EN 4003
دري 4004
▁연 4005
▁औषध 4006
TEA 4007
▁Hend 4008
עיר 4009
ሁለተኛ 4010
▁Sağ 4011
▁Ano 4012
▁Anita 4013
شرب 4014
простран 4015
▁বয়স 4016
计划 4017
▁models 4018
▁доп 4019
foss 4020
கிற 4021
Ղ 4022
su 4023
しましたが 4024
/1 4025
жайы 4026
▁வங்கி 4027
▁והיא 4028
▁Pop 4029
▁μιλά 4030
safe 4031
▁24. 4032
▁ótimo 4033
▁kaikkien 4034
▁factum 4035
líci 4036
3% 4037
打工 4038
なんだ 4039
▁Khalid 4040
ІІІ 4041
▁Center 4042
▁foglal 4043
инвестицион 4044
lendiği 4045
▁Эк 4046
▁تند 4047
▁шатны 4048
93 4049
ТҮ 4050
арч 4051
▁records 4052
▁palli 4053
ÍS 4054
ቃል 4055
ૂર 4056
mandi 4057
CIN 4058
▁довго 4059
ाबाद 4060
asan 4061
▁retejo 4062
▁Sett 4063
▁įgyvendin 4064
گھ 4065
▁høyre 4066
留 4067
βερ 4068
▁Servei 4069
მთ 4070
▁шығарма 4071
▁தெ 4072
▁per 4073
虽然 4074
▁သုံး 4075
နစ္ 4076
มุ่ง 4077
▁ครู 4078
ቷል፡፡ 4079
dora 4080
▁esperanza 4081
▁uzņēmumu 4082
权 4083
емый 4084
▁verhouding 4085
▁پۇ 4086
អំ 4087
uri 4088
美國 4089
▁ээж 4090
ðu 4091
▁בשם 4092
▁reakci 4093
impl 4094
▁priori 4095
▁संग्रह 4096
▁adults 4097
Mos 4098
▁Kyse 4099
▁Ing 4100
▁oseba 4101
副 4102
িস 4103
▁urmări 4104
โช 4105
ICK 4106
▁acı 4107
▁Michael 4108
▁Loren 4109
pach 4110
توجه 4111
плати 4112
▁گردن 4113
▁taldea 4114
වෙන්න 4115
▁장 4116
นี้เป็น 4117
▁lita 4118
クリ 4119
ण्यास 4120
▁потребе 4121
▁mas 4122
▁llocs 4123
▁Sel 4124
علامہ 4125
▁Youth 4126
▁İtalya 4127
▁proximité 4128
▁pethau 4129
name 4130
▁таможенн 4131
kunni 4132
sakit 4133
έρι 4134
kā 4135
pija 4136
▁etape 4137
locat 4138
Ад 4139
▁krajiny 4140
aq 4141
▁Velg 4142
▁reicht 4143
közlekedés 4144
мөн 4145
eel 4146
ляга 4147
▁المغ 4148
▁sidomos 4149
ealaí 4150
ppu 4151
▁فائد 4152
▁বন্ধু 4153
مدرسة 4154
比较 4155
lediği 4156
יקס 4157
▁SDP 4158
kkää 4159
親 4160
▁ജില്ല 4161
忽 4162
▁کلن 4163
ేష్ 4164
嗎 4165
lingar 4166
▁Vital 4167
▁통합 4168
▁ಮೋ 4169
▁фокус 4170
lla 4171
▁баба 4172
ಭೂಮಿ 4173
▁ket 4174
ньому 4175
▁Seura 4176
▁Үкімет 4177
▁Belajar 4178
96 4179
значення 4180
的商品 4181
▁gumi 4182
▁blokk 4183
▁तिला 4184
▁سازش 4185
▁individual 4186
▁ਸਕਦੀ 4187
▁взяти 4188
▁Eduka 4189
▁25. 4190
▁पकड़ 4191
ФА 4192
委員 4193
▁egészséges 4194
ליים 4195
피 4196
Sex 4197
sveit 4198
▁falleg 4199
ሷ 4200
▁dubte 4201
▁അതില് 4202
某 4203
▁kelias 4204
▁Пят 4205
たい 4206
násob 4207
▁некоја 4208
ministeriö 4209
跑 4210
▁muziki 4211
忘れ 4212
ирую 4213
ሪዎች 4214
113 4215
▁állami 4216
ΩΣ 4217
ုိင္း 4218
பட்ட 4219
▁سیل 4220
▁sagatavo 4221
▁המצ 4222
▁açıqlama 4223
55 4224
▁գրավ 4225
יגן 4226
忽略 4227
▁robe 4228
ιέ 4229
ପାରିବ 4230
▁HA 4231
▁ਜਾਵੇਗਾ 4232
▁வெளியே 4233
▁acu 4234
▁priemonės 4235
▁keittiö 4236
九 4237
braut 4238
λία 4239
Je 4240
▁Mood 4241
sichtlich 4242
▁स्थल 4243
aktif 4244
▁Boha 4245
▁iránt 4246
▁rozhodne 4247
▁ಎನ್ನುವ 4248
▁ప్రాంత 4249
▁run 4250
▁கெ 4251
▁elektronski 4252
cé 4253
EVE 4254
▁mieszkania 4255
▁۲۳ 4256
▁lidh 4257
▁Reg 4258
▁المحت 4259
GE 4260
cus 4261
▁alarak 4262
是一款 4263
▁tanıt 4264
SERV 4265
▁visione 4266
רוי 4267
▁1396 4268
▁fér 4269
usa 4270
iniuose 4271
機車 4272
teur 4273
IĆ 4274
▁کروا 4275
imli 4276
有些 4277
▁അടിസ്ഥാന 4278
当你 4279
ందే 4280
▁nedaudz 4281
▁ágúst 4282
ů 4283
▁істеу 4284
ചന്ദ്ര 4285
▁astronomi 4286
▁heiß 4287
▁fok 4288
കട 4289
▁Suu 4290
▁بهار 4291
別 4292
້ວ 4293
▁mancare 4294
▁saxlanıl 4295
wen 4296
scrizione 4297
▁centre 4298
▁cargos 4299
داشت 4300
faire 4301
▁komuna 4302
ශි 4303
▁උත්සාහ 4304
ti 4305
▁သား 4306
హు 4307
▁jarraitu 4308
λλο 4309
वेल 4310
51 4311
▁halad 4312
▁1990 4313
苦 4314
технолог 4315
▁mikilvæg 4316
たま 4317
視 4318
▁houve 4319
ಪಂ 4320
xé 4321
攤 4322
▁Cape 4323
▁gwybod 4324
▁dźwięk 4325
▁Ar 4326
▁ուղղված 4327
БОР 4328
mista 4329
▁байвал 4330
▁ሦስት 4331
▁забране 4332
▁61 4333
▁esforço 4334
▁entsprechend 4335
▁двамата 4336
▁новую 4337
▁descubrir 4338
Thi 4339
▁polnud 4340
▁brist 4341
▁Rhein 4342
ਐਮ 4343
жилт 4344
▁programma 4345
▁తెలి 4346
hääl 4347
альное 4348
用 4349
ቅዱስ 4350
▁Цр 4351
▁пәні 4352
▁antico 4353
▁prestar 4354
mez 4355
ዘን 4356
كبر 4357
▁карты 4358
▁Design 4359
Plat 4360
▁منتدى 4361
јно 4362
KUM 4363
පී 4364
bhal 4365
▁agresi 4366
▁მხარე 4367
ph 4368
DIG 4369
box 4370
пројект 4371
▁Middel 4372
عاب 4373
▁Gel 4374
▁vormen 4375
kér 4376
▁ئىس 4377
nia 4378
▁GK 4379
▁юридическо 4380
▁partijen 4381
▁Талас 4382
▁considerada 4383
สาขา 4384
▁Кеңеш 4385
▁бүгүн 4386
tòria 4387
ประวัติศาสตร์ 4388
▁sat 4389
▁షో 4390
▁Архив 4391
▁next 4392
రక 4393
▁ይሆን 4394
▁경우에는 4395
打印 4396
▁Before 4397
▁عوض 4398
▁zili 4399
▁Itulah 4400
▁Prof 4401
▁daļu 4402
ós 4403
▁finansiell 4404
מינ 4405
▁eu 4406
▁ihminen 4407
▁രാമ 4408
▁indicate 4409
▁Reykjavíkur 4410
▁کلک 4411
― 4412
▁naziv 4413
▁1897 4414
czyk 4415
document 4416
meyeceği 4417
▁Olu 4418
▁ಉಳಿದ 4419
となりました 4420
দ্য 4421
▁doklad 4422
mbong 4423
▁yog 4424
재단 4425
▁песен 4426
▁læring 4427
즈 4428
自分の 4429
เลยค่ะ 4430
▁Аф 4431
▁Denne 4432
▁agora 4433
我覺得 4434
มีปัญหา 4435
▁праекта 4436
my 4437
▁Vin 4438
▁катуу 4439
పూ 4440
▁ඌ 4441
gum 4442
▁ընկ 4443
▁schod 4444
▁서 4445
teeksi 4446
▁মামলা 4447
員 4448
bhá 4449
マンション 4450
▁Amerîka 4451
▁sərəncam 4452
交易 4453
Ѓ 4454
▁Us 4455
▁cop 4456
천 4457
▁Tujuan 4458
▁Ná 4459
tekniikka 4460
▁iekār 4461
альную 4462
we 4463
▁посмотрел 4464
▁پرشین 4465
▁£ 4466
▁показали 4467
▁Caroline 4468
▁spécialisé 4469
列 4470
▁constitu 4471
▁масса 4472
▁лоб 4473
RE 4474
ෙමි 4475
▁Koska 4476
▁yok 4477
stró 4478
ציות 4479
▁irure 4480
▁Sk 4481
冬季 4482
ագիրը 4483
▁فورم 4484
dug 4485
▁कसे 4486
▁tarafı 4487
rojn 4488
▁передбачен 4489
ijske 4490
ቂያ 4491
misessa 4492
如果有 4493
kázal 4494
▁Kole 4495
▁даними 4496
lada 4497
▁מזרח 4498
349 4499
▁130 4500
▁почина 4501
▁αλλαγή 4502
▁zgjedh 4503
▁priemer 4504
▁leter 4505
▁публичн 4506
वां 4507
rú 4508
委托 4509
ၵ 4510
▁සම්පූර්ණ 4511
net 4512
▁call 4513
erer 4514
vidas 4515
▁rodziców 4516
▁OS 4517
▁proszę 4518
▁tjedna 4519
áért 4520
▁Uni 4521
สัม 4522
▁සමත් 4523
▁fortsette 4524
拿 4525
▁Św 4526
▁naturelle 4527
에서 4528
4.2 4529
felt 4530
▁scal 4531
▁civili 4532
ნორ 4533
kindlustus 4534
▁elementów 4535
وعة 4536
▁arsim 4537
▁ECO 4538
▁изгуби 4539
知って 4540
gelin 4541
▁هوندا 4542
国の 4543
买 4544
ιακά 4545
lerimizi 4546
డర్ 4547
▁aceeasi 4548
luhur 4549
valy 4550
▁huomaa 4551
▁ciljev 4552
likni 4553
▁având 4554
▁skøn 4555
▁yang 4556
ll 4557
热 4558
▁altın 4559
▁líon 4560
▁totam 4561
勁 4562
のか 4563
▁Yesus 4564
▁పేజీ 4565
hånd 4566
メディア 4567
យុវជន 4568
▁πρόταση 4569
▁meddwl 4570
หาร 4571
Í 4572
əşə 4573
▁Data 4574
▁기관 4575
▁Конституция 4576
सै 4577
பூர் 4578
倒 4579
▁Minas 4580
▁multipli 4581
▁الحدود 4582
▁used 4583
чилж 4584
dami 4585
▁gauche 4586
▁կայքում 4587
▁veloce 4588
▁잘 4589
▁अहिलेसम्म 4590
机构 4591
ເລີ 4592
▁végz 4593
▁တွင် 4594
▁különösen 4595
ıstan 4596
mente 4597
bg 4598
▁المدير 4599
▁Grau 4600
нял 4601
▁ଲୋକେ 4602
▁drugog 4603
▁перші 4604
ající 4605
vanta 4606
▁aplicativo 4607
昨年 4608
ganja 4609
▁بنياد 4610
夥伴 4611
▁Chine 4612
誇 4613
taisi 4614
▁эзэмш 4615
▁nimel 4616
▁mérkőzés 4617
▁ගිණුම 4618
▁Spotify 4619
▁troviĝas 4620
▁герой 4621
▁саласындағы 4622
▁Nazirlər 4623
▁койгон 4624
▁Es 4625
▁дійсно 4626
sum 4627
▁bergabung 4628
小米 4629
▁අස් 4630
这一 4631
▁අපගේ 4632
▁hökm 4633
cināt 4634
76 4635
科技有限公司 4636
▁funkcion 4637
▁förklara 4638
uwar 4639
▁अध 4640
▁olacağını 4641
३८ 4642
مجلس 4643
VI 4644
१७ 4645
ətlər 4646
isiún 4647
kering 4648
▁hören 4649
▁kar 4650
▁KO 4651
▁அன்பு 4652
▁neniam 4653
▁Problema 4654
მც 4655
▁הינו 4656
也不能 4657
▁raska 4658
▁ጥያቄዎች 4659
▁bakarra 4660
▁lumtur 4661
▁età 4662
▁soko 4663
წყო 4664
ଇଲେ 4665
▁خاتم 4666
叔 4667
သွင်း 4668
▁skúsenosti 4669
▁tot 4670
▁Kai 4671
▁წლებში 4672
▁ખાતે 4673
▁Here 4674
▁ବଦଳ 4675
JA 4676
▁overheid 4677
▁చూపించ 4678
ليو 4679
press 4680
371 4681
ለብ 4682
▁zkušenosti 4683
▁1995 4684
▁butun 4685
مائة 4686
▁установки 4687
▁прояви 4688
sama 4689
▁پائ 4690
▁synlig 4691
āļu 4692
▁bai 4693
▁बैठकमा 4694
há 4695
▁nostri 4696
▁bordet 4697
▁veto 4698
▁носа 4699
37) 4700
▁napisał 4701
áig 4702
読んで 4703
oikeuden 4704
кової 4705
Da 4706
▁Saturn 4707
▁kelis 4708
flow 4709
▁instituciones 4710
pür 4711
▁praesent 4712
▁Uniti 4713
اين 4714
Π 4715
▁gutes 4716
▁সকাল 4717
▁NGO 4718
ніку 4719
pé 4720
语 4721
▁হামলা 4722
▁rengi 4723
▁Hur 4724
▁소식 4725
淺 4726
▁επιχειρ 4727
▁성 4728
▁보인다 4729
▁spodbuja 4730
▁bul 4731
mbuk 4732
▁ჭა 4733
聞く 4734
▁magandang 4735
▁Jinsi 4736
▁caldo 4737
▁מקבל 4738
▁Pirk 4739
▁īsteno 4740
बळ 4741
与 4742
▁płac 4743
خدم 4744
ema 4745
▁ছিলেন 4746
ignon 4747
▁തുറന്ന 4748
學會 4749
udesta 4750
▁žinoma 4751
AMENTO 4752
alcalde 4753
首頁 4754
tică 4755
പൂര് 4756
training 4757
ယား 4758
▁muzikos 4759
▁vendeve 4760
界 4761
▁kansa 4762
બંધ 4763
stev 4764
▁arrangere 4765
지 4766
▁1996 4767
▁2009) 4768
河南 4769
▁salgs 4770
ذاك 4771
▁उनीहरु 4772
组合 4773
に入れ 4774
thra 4775
▁слага 4776
UM 4777
ေယာက္ 4778
hra 4779
聖誕 4780
▁agricole 4781
▁տր 4782
▁મોત 4783
▁pogodbe 4784
३६ 4785
iel 4786
▁Xperia 4787
lung 4788
▁tovuti 4789
▁Archiv 4790
▁Digər 4791
▁Amurka 4792
▁ვის 4793
▁te 4794
ami 4795
pag 4796
▁хороший 4797
▁ideál 4798
▁meter 4799
גזר 4800
ζαν 4801
ึก 4802
eira 4803
▁Yeah 4804
▁گلو 4805
▁every 4806
▁معمولی 4807
▁տուր 4808
▁anyagok 4809
AR 4810
▁ranta 4811
▁Pagka 4812
▁rakt 4813
▁κατηγορ 4814
ssa 4815
bru 4816
▁поступа 4817
ујемо 4818
▁ကား 4819
選舉 4820
▁Қор 4821
▁seolah 4822
raich 4823
▁prae 4824
▁Глава 4825
自分に 4826
▁متهم 4827
▁portal 4828
mbang 4829
चाल 4830
పక్ష 4831
úcháin 4832
▁prošlo 4833
▁sød 4834
▁קונ 4835
的男人 4836
膚 4837
▁зорилго 4838
▁চৌধুরী 4839
有沒有 4840
ირი 4841
toa 4842
▁febrúar 4843
흑 4844
Хмельницьк 4845
▁मौका 4846
▁핵심 4847
▁лютага 4848
▁X 4849
我国 4850
▁Trainer 4851
ພາຍໃນ 4852
▁hyviä 4853
ÖS 4854
▁সালের 4855
▁ರೀತಿಯ 4856
▁aviso 4857
▁eylem 4858
無限 4859
▁माह 4860
人體 4861
▁dikir 4862
▁zmaga 4863
▁oli 4864
계 4865
目的地 4866
▁വിട്ടു 4867
▁Libri 4868
▁Minimal 4869
▁stöðu 4870
szolgáltatás 4871
זון 4872
情况 4873
ຽວ 4874
▁juru 4875
救 4876
▁әдіс 4877
Con 4878
ఫల 4879
▁Iskola 4880
▁potere 4881
▁69 4882
▁аттуу 4883
▁club 4884
შის 4885
台灣的 4886
സ്ട്ര 4887
▁votat 4888
衣 4889
ESI 4890
ująca 4891
きちんと 4892
타임 4893
そのような 4894
怎樣 4895
asiantuntija 4896
duk 4897
▁bại 4898
フリー 4899
▁કોર્ટ 4900
▁ажилла 4901
לר 4902
▁fal 4903
▁Eftersom 4904
▁தினம் 4905
spor 4906
▁အမွတ္ 4907
▁हामीलाई 4908
▁sidde 4909
လယ္ 4910
сіі 4911
talouden 4912
▁micro 4913
പ്പെടുന്നു 4914
βλη 4915
krishna 4916
それで 4917
ಿಸಿದ್ದಾರೆ 4918
▁síma 4919
wiesz 4920
ન્ન 4921
rok 4922
▁ສອງ 4923
▁Amanda 4924
▁vindue 4925
・・ 4926
uro 4927
▁ఉంటా 4928
detail 4929
▁профессионально 4930
Radio 4931
ình 4932
брос 4933
▁пошуку 4934
▁Love 4935
ማል 4936
spo 4937
▁degrada 4938
zhou 4939
वन् 4940
беле 4941
utu 4942
▁þótt 4943
▁rhy 4944
เทศ 4945
群 4946
▁gjëra 4947
▁bed 4948
▁غرف 4949
▁Christo 4950
▁magac 4951
АДА 4952
cken 4953
▁mote 4954
အေပၚ 4955
を開催 4956
Në 4957
30 4958
晒 4959
▁originál 4960
καθ 4961
恐怕 4962
บ่อย 4963
kového 4964
伦敦 4965
힐 4966
支 4967
វិស័យ 4968
▁프랑스 4969
▁განვითარება 4970
▁sottolinea 4971
▁forte 4972
▁Keres 4973
တိုင် 4974
▁কৰা 4975
gabung 4976
▁Trou 4977
▁Sense 4978
▁fylke 4979
▁medicale 4980
ليا 4981
▁gro 4982
오는 4983
▁felhasználói 4984
ၿမ 4985
▁nett 4986
十四 4987
▁Dez 4988
▁ірі 4989
都 4990
lse 4991
▁انتخابی 4992
注意 4993
ເດືອນ 4994
ක්කු 4995
难 4996
략 4997
▁Мел 4998
နီး 4999
дөй 5000
ળે 5001
ılmasını 5002
を持っている 5003
uojamas 5004
fryd 5005
▁biju 5006
نور 5007
កូ 5008
ブランド 5009
▁Οικονομ 5010
ထောက် 5011
▁હજાર 5012
▁дверь 5013
▁fali 5014
uré 5015
▁jabatan 5016
▁Origin 5017
lässig 5018
▁саясий 5019
▁nastup 5020
tədqiqat 5021
▁незаконно 5022
KOV 5023
▁leaders 5024
увани 5025
ಣ್ 5026
▁คา 5027
8% 5028
▁qaadan 5029
എല് 5030
▁Styl 5031
alternativ 5032
మన్ 5033
▁Tarih 5034
▁March 5035
▁Bij 5036
ของฉัน 5037
schef 5038
AKE 5039
▁вынік 5040
▁Gy 5041
əsinin 5042
isse 5043
▁Hóa 5044
वृ 5045
俩 5046
szony 5047
▁රෝහල 5048
fesztivál 5049
e 5050
▁para 5051
段 5052
▁чиглэлээр 5053
má 5054
▁منہ 5055
▁dóna 5056
▁കുറവ 5057
▁tänne 5058
suhde 5059
▁мовою 5060
iệm 5061
▁sens 5062
▁miközben 5063
▁Leia 5064
▁stan 5065
▁поклон 5066
▁Patria 5067
▁extreme 5068
▁मात 5069
▁share 5070
▁tautas 5071
▁konsekvenser 5072
▁mecz 5073
▁mg 5074
▁Градск 5075
▁video 5076
paino 5077
▁factors 5078
を入れ 5079
▁pü 5080
82 5081
▁លាន 5082
MO 5083
安い 5084
▁стає 5085
rta 5086
рыць 5087
▁موقعیت 5088
解析 5089
▁ווערט 5090
▁Ros 5091
▁frit 5092
ძლევ 5093
Dec 5094
▁लिएको 5095
這些 5096
თის 5097
mand 5098
▁Bahn 5099
▁estuda 5100
κληση 5101
以内 5102
▁Wissenschaft 5103
▁자동 5104
的人生 5105
kilo 5106
▁معها 5107
▁chant 5108
▁thự 5109
▁Mes 5110
▁தேவ 5111
▁ڀر 5112
关于 5113
mått 5114
纪录 5115
لڪ 5116
värdering 5117
削除 5118
oldvideochat 5119
经 5120
▁изделия 5121
師 5122
▁Favorit 5123
▁ciudadanos 5124
▁uçuş 5125
災害 5126
▁otherwise 5127
นักท่องเที่ยว 5128
▁bērna 5129
▁Gottes 5130
▁تستخدم 5131
▁пуска 5132
▁kasutades 5133
▁melynek 5134
▁Ko 5135
▁категорија 5136
▁منظمة 5137
▁duše 5138
花了 5139
водство 5140
▁hemel 5141
▁Лист 5142
billede 5143
ావ 5144
▁Gor 5145
▁avoir 5146
事前に 5147
▁لمح 5148
▁pontosan 5149
THE 5150
ánál 5151
全年 5152
▁новы 5153
大眾 5154
▁snor 5155
તમ 5156
▁volve 5157
限 5158
სვლის 5159
▁hechos 5160
▁Сем 5161
ske 5162
ሳል 5163
್ತಿ 5164
айт 5165
linio 5166
▁Ia 5167
▁মাস 5168
жную 5169
裔 5170
▁Þor 5171
▁68 5172
▁bryllup 5173
▁шэраг 5174
▁SP 5175
▁הני 5176
ANA 5177
기사 5178
▁ascolta 5179
ህዝቡ 5180
▁zevk 5181
▁bog 5182
▁යවරයා 5183
ά 5184
▁ministru 5185
ਫਰ 5186
▁инвестор 5187
▁hittade 5188
▁Arian 5189
▁salın 5190
▁njegovih 5191
ინის 5192
に関しては 5193
▁ทีม 5194
rica 5195
тельную 5196
파 5197
▁Јан 5198
systemer 5199
Հայ 5200
太太 5201
رانی 5202
nger 5203
▁Lena 5204
現在の 5205
的社会 5206
▁Kell 5207
وران 5208
▁fan 5209
▁Sheria 5210
ನಲ್ 5211
▁110 5212
无数 5213
▁לצד 5214
▁යාල 5215
ستى 5216
sco 5217
▁sistemului 5218
贸 5219
ுமா 5220
ที่ต้อง 5221
อนุญาต 5222
▁tarkoitus 5223
▁glücklich 5224
▁본 5225
鋪 5226
しばらく 5227
自治区 5228
▁نهائي 5229
▁Pengerusi 5230
▁63 5231
▁مشرانو 5232
річний 5233
▁فائدہ 5234
▁Mi 5235
ddi 5236
通用 5237
▁piha 5238
లేని 5239
ର୍ଡ 5240
ciano 5241
海军 5242
IEL 5243
活性 5244
▁Dominic 5245
σίες 5246
gov 5247
័រ 5248
элж 5249
▁dorit 5250
ૂં 5251
ხმა 5252
▁válaszol 5253
▁පිය 5254
åringen 5255
Atom 5256
電力 5257
കഥ 5258
▁Hafta 5259
iensis 5260
▁qaç 5261
▁խնդիր 5262
▁bez 5263
について 5264
▁Fler 5265
ದ್ರೆ 5266
怎么 5267
▁Špan 5268
cza 5269
出てくる 5270
▁башкы 5271
Ֆ 5272
ализира 5273
▁bolo 5274
▁zastosowan 5275
▁pratiques 5276
▁službeni 5277
учени 5278
っている 5279
▁הגב 5280
isissa 5281
▁roga 5282
▁අනි 5283
IDATO 5284
▁çaba 5285
▁2013 5286
▁Claro 5287
获得了 5288
▁Merhaba 5289
提出 5290
▁υπουργός 5291
条件 5292
下滑 5293
▁النوع 5294
inėmis 5295
▁ដី 5296
▁sort 5297
ÀI 5298
▁hvala 5299
lly 5300
▁Duitse 5301
▁خواندن 5302
▁sínu 5303
ナル 5304
▁fucking 5305
▁brood 5306
შვე 5307
▁ondorioz 5308
▁വെബ് 5309
▁wichtiger 5310
▁der 5311
কন 5312
▁әкімі 5313
said 5314
▁специално 5315
▁terminat 5316
ランド 5317
▁Више 5318
lē 5319
ร้านอาหาร 5320
ствовал 5321
▁జిల్లాలో 5322
tanje 5323
dô 5324
▁ਸੁਖ 5325
▁výroby 5326
▁mina 5327
▁girme 5328
IVO 5329
▁मज 5330
ลืม 5331
託 5332
劍 5333
筒 5334
kräfte 5335
Ko 5336
▁희망 5337
תחבורה 5338
▁nabídky 5339
ine 5340
▁चक्र 5341
▁tanàna 5342
▁уга 5343
不断 5344
▁qilindi 5345
▁اخراج 5346
mount 5347
▁vlerë 5348
olla 5349
လင်း 5350
▁mitad 5351
ဆင္း 5352
▁primi 5353
cidi 5354
ભૂત 5355
kite 5356
▁Miko 5357
ാടി 5358
tiunea 5359
女友 5360
▁țări 5361
lk 5362
ገራ 5363
新的 5364
▁concession 5365
yjne 5366
▁Nicole 5367
正直 5368
▁birlik 5369
cilla 5370
心の 5371
▁שיווק 5372
そうで 5373
▁כספי 5374
ball 5375
▁kniha 5376
Franc 5377
ადგილ 5378
まあ 5379
ご連絡 5380
▁financeiro 5381
▁bölgesinde 5382
cağı 5383
▁jugadores 5384
ለሁ። 5385
▁Anime 5386
ካል 5387
▁писать 5388
▁Viss 5389
▁rates 5390
▁Acer 5391
▁الشو 5392
▁شناخته 5393
▁traže 5394
tza 5395
▁makeup 5396
tutto 5397
▁Që 5398
定义 5399
ډي 5400
▁Office 5401
بھی 5402
蟹 5403
внутрен 5404
▁Ernährung 5405
▁अशोक 5406
We 5407
▁판단 5408
▁कुठे 5409
▁legea 5410
▁tertinggi 5411
▁حجت 5412
▁обре 5413
ქტი 5414
ուստ 5415
ศพ 5416
▁Me 5417
▁мъже 5418
barkeit 5419
▁makse 5420
▁entstehen 5421
אית 5422
drept 5423
য়ন 5424
們 5425
的表现 5426
資本 5427
▁пословн 5428
▁paham 5429
▁شار 5430
▁individu 5431
▁লগ 5432
/5 5433
▁қоса 5434
▁مطالعات 5435
όμενο 5436
ацією 5437
▁vodou 5438
nico 5439
功夫 5440
ອັນ 5441
▁Kategoria 5442
▁Waka 5443
▁шешу 5444
▁Rett 5445
තය 5446
能不能 5447
▁Gazete 5448
▁Deutschland 5449
лекс 5450
辱 5451
escriure 5452
চিত্র 5453
辩 5454
تعامل 5455
溫泉 5456
ଦର୍ଶନ 5457
geschäft 5458
wyd 5459
vergadering 5460
▁ehtiyat 5461
ขอบ 5462
や 5463
のが 5464
ամար 5465
▁الخدمة 5466
ਿਸ਼ 5467
▁Rio 5468
▁उज 5469
antsika 5470
▁linie 5471
▁Akta 5472
qram 5473
▁гостей 5474
▁deiner 5475
▁Evropi 5476
্যাল 5477
▁पहन 5478
遊戲 5479
리지 5480
▁Walt 5481
käsi 5482
ுக் 5483
▁सकाळी 5484
为了 5485
nnissa 5486
ságok 5487
▁сроки 5488
▁baza 5489
▁пријател 5490
地圖 5491
▁ამბები 5492
▁Ta 5493
ovo 5494
▁Пен 5495
▁læst 5496
द्वारे 5497
ुप 5498
лья 5499
▁RM 5500
ilu 5501
asztal 5502
fre 5503
Отвара 5504
▁Mamy 5505
nach 5506
мерен 5507
vus 5508
दश 5509
锻炼 5510
疫 5511
▁สมาชิก 5512
乾淨 5513
kjes 5514
▁Turmush 5515
▁KE 5516
91 5517
▁кетип 5518
▁чыгыш 5519
توج 5520
ишу 5521
▁nisur 5522
▁mộ 5523
▁Profile 5524
▁arkadaşlar 5525
6% 5526
▁18.30 5527
ስማ 5528
שמים 5529
▁Saint 5530
3.00 5531
lamaya 5532
▁Congresso 5533
സീ 5534
もらって 5535
▁fiziki 5536
▁7.5 5537
гчийн 5538
▁اکثریت 5539
위로 5540
ที่ทําให้ 5541
შვილის 5542
▁mains 5543
▁학습 5544
nywa 5545
有限公司 5546
gri 5547
▁drank 5548
▁فولاد 5549
▁refu 5550
▁mocy 5551
▁tempatan 5552
turva 5553
hatta 5554
Service 5555
그룹 5556
▁sebulan 5557
▁pät 5558
▁dan 5559
▁will 5560
pozycja 5561
▁понрави 5562
▁gọn 5563
ശബ്ദ 5564
жати 5565
арно 5566
▁schriftlich 5567
idos 5568
▁sehe 5569
▁carico 5570
▁၁။ 5571
▁gezellig 5572
▁individuale 5573
▁novidades 5574
▁пчел 5575
▁полезны 5576
ვანი 5577
▁भई 5578
▁PP 5579
▁भूत 5580
ወርቅ 5581
ችሉ 5582
alum 5583
maso 5584
▁താന് 5585
▁moteur 5586
▁työtä 5587
▁rifu 5588
ಿಯಲ್ಲಿ 5589
жаны 5590
tten 5591
▁पासून 5592
▁الليل 5593
▁Fyn 5594
orno 5595
skripsi 5596
資料 5597
▁храма 5598
▁líst 5599
রিয়া 5600
맥 5601
▁ekonomike 5602
▁EUR 5603
:15 5604
dĺž 5605
တို့ကို 5606
телят 5607
yen 5608
geleid 5609
טכנולוגי 5610
ხოვ 5611
▁PADA 5612
▁Ska 5613
▁Anta 5614
Rock 5615
дсэн 5616
黏 5617
銅 5618
▁съобщи 5619
ked 5620
青岛 5621
▁Legisla 5622
咱们 5623
ျမိဳ႕ 5624
▁државно 5625
▁Мали 5626
▁бодож 5627
▁iborat 5628
▁казалось 5629
mah 5630
▁članova 5631
合作伙伴 5632
ks 5633
92 5634
iečiai 5635
▁يساعد 5636
▁TH 5637
▁mnoge 5638
PC 5639
▁faisant 5640
▁decorat 5641
ulungan 5642
كوب 5643
▁sanayi 5644
影 5645
PA 5646
▁مصروف 5647
DRO 5648
ськ 5649
likkuse 5650
▁администратор 5651
▁цирк 5652
ውቅ 5653
▁குரு 5654
雷 5655
一辆 5656
▁dhanka 5657
▁değişim 5658
▁тече 5659
▁tò 5660
▁густ 5661
කේ 5662
▁wie 5663
▁montar 5664
ाएका 5665
pół 5666
生命的 5667
▁245 5668
▁fibre 5669
▁299 5670
▁trov 5671
57 5672
▁Binnen 5673
▁شيئا 5674
七 5675
一切都 5676
▁localidade 5677
чном 5678
税 5679
ваючы 5680
tehnika 5681
Ra 5682
▁serbe 5683
ционер 5684
▁gay 5685
模式 5686
▁তুমি 5687
▁ved 5688
▁trebao 5689
▁посао 5690
▁అతను 5691
디 5692
▁Рах 5693
▁utilizzato 5694
▁zou 5695
▁arkitektur 5696
▁થયેલ 5697
ilha 5698
演 5699
essaan 5700
ณา 5701
▁Komisioni 5702
▁პროექტი 5703
▁Lagt 5704
▁toplantısı 5705
업 5706
djur 5707
ФОР 5708
▁dezvoltare 5709
ric 5710
श्वास 5711
▁mentale 5712
▁parlamenti 5713
▁какого 5714
▁Pin 5715
▁రాత్రి 5716
▁estén 5717
▁organik 5718
▁ክፍ 5719
▁plu 5720
▁המא 5721
かい 5722
▁mbetur 5723
дек 5724
▁слот 5725
ാണെന്നും 5726
മ്മി 5727
yr 5728
drog 5729
τήρι 5730
嚴格 5731
懸 5732
岳 5733
实 5734
▁całe 5735
▁studio 5736
▁tháinig 5737
▁طولانی 5738
จะช่วย 5739
▁चाहता 5740
ిగా 5741
▁Савет 5742
▁kart 5743
▁Његов 5744
▁upea 5745
нист 5746
RA 5747
▁estudia 5748
lle 5749
▁ಬಡ 5750
כאב 5751
▁Stort 5752
igu 5753
▁pāris 5754
▁Reply 5755
▁hodnoty 5756
▁Iris 5757
▁Komment 5758
bad 5759
포 5760
▁Euskara 5761
變 5762
▁فورا 5763
▁дошло 5764
종 5765
▁põhjust 5766
әрекет 5767
समोर 5768
& 5769
▁lelki 5770
戰 5771
었는데 5772
▁etsin 5773
▁shift 5774
▁belas 5775
高達 5776
▁Lamb 5777
▁ویبپاڼ 5778
▁Kies 5779
抖 5780
▁قرب 5781
កំពង់ 5782
▁rit 5783
▁esperantistoj 5784
▁jaanuar 5785
▁өттү 5786
▁کرلیا 5787
▁Ensino 5788
▁நோய் 5789
▁овозможува 5790
▁위해서 5791
なっている 5792
▁prý 5793
ότερη 5794
▁persoonlijk 5795
▁som 5796
ę 5797
▁read 5798
лски 5799
▁transfer 5800
▁अंत 5801
▁продолжа 5802
mun 5803
車輛 5804
▁čuva 5805
▁ნატო 5806
▁Διά 5807
配送 5808
790 5809
टॉप 5810
ängen 5811
▁କମ 5812
▁Lär 5813
▁ബന്ധപ്പെട്ട 5814
tú 5815
▁германски 5816
▁ühes 5817
CAS 5818
daļa 5819
在你 5820
▁Provide 5821
▁обязательств 5822
▁സൈ 5823
სამ 5824
acaksınız 5825
▁lucrat 5826
▁இப்ப 5827
śmy 5828
dah 5829
▁стоп 5830
لفت 5831
cao 5832
▁cambiare 5833
▁পায় 5834
幽 5835
畢竟 5836
▁permiten 5837
▁देशमा 5838
継 5839
標籤 5840
відповідальність 5841
▁benötigen 5842
▁feel 5843
▁Main 5844
건 5845
▁Εκεί 5846
▁ಮಾಡಿಕೊಳ್ಳ 5847
▁בשעה 5848
▁जरुरी 5849
試 5850
▁فروغ 5851
▁düşünür 5852
▁ചോദിച്ച 5853
▁postre 5854
▁Bonn 5855
▁wadau 5856
lun 5857
▁politice 5858
▁Siemens 5859
click 5860
▁ipar 5861
سق 5862
▁cilt 5863
▁significa 5864
▁qurban 5865
gu 5866
figura 5867
▁cogita 5868
▁бен 5869
media 5870
sivat 5871
いろいろな 5872
Пер 5873
發現 5874
▁pijn 5875
▁моделі 5876
tiivne 5877
hand 5878
ဒို 5879
▁Pievienot 5880
یزه 5881
▁rechten 5882
54 5883
▁компанията 5884
▁düzenlen 5885
▁Mobil 5886
▁parte 5887
▁ryggen 5888
▁Ag 5889
əsində 5890
▁kertoi 5891
▁zemlja 5892
vai 5893
仿 5894
遂 5895
IOR 5896
▁հանդիս 5897
질 5898
▁УК 5899
▁vähemmän 5900
▁erwarten 5901
▁talent 5902
▁sheegeen 5903
▁Service 5904
▁구 5905
▁கிராம 5906
ant 5907
AD 5908
が入って 5909
▁scoate 5910
▁DVD 5911
fikiri 5912
▁System 5913
▁faller 5914
экскурс 5915
▁bestimmten 5916
▁يوما 5917
▁INFO 5918
▁Kolon 5919
▁odborník 5920
สู้ 5921
▁Command 5922
tsioonid 5923
menni 5924
leyin 5925
▁도 5926
▁velo 5927
▁kynna 5928
▁περιβάλλον 5929
▁ሸ 5930
▁세 5931
▁negre 5932
▁Mwaka 5933
▁dijela 5934
tila 5935
▁ești 5936
ttomia 5937
lei 5938
빠 5939
▁અસર 5940
jel 5941
죽 5942
▁VYA 5943
▁realizados 5944
▁minél 5945
▁milles 5946
累计 5947
▁chala 5948
由于 5949
▁Ferdinand 5950
▁vērtība 5951
▁f 5952
▁roulette 5953
▁особливості 5954
▁ավանդ 5955
▁கொலை 5956
預期 5957
▁هرگز 5958
▁ముందుకు 5959
▁reduz 5960
▁ກຸ່ມ 5961
waran 5962
Ако 5963
ريان 5964
▁Grund 5965
▁എൻ 5966
aynta 5967
▁bha 5968
▁camion 5969
▁Felix 5970
jelző 5971
尼 5972
▁Áll 5973
▁بالن 5974
rī 5975
▁ජනතා 5976
▁mis 5977
このように 5978
▁आपला 5979
▁консул 5980
▁നേരെ 5981
▁Estado 5982
▁anus 5983
▁novca 5984
स्मा 5985
ہری 5986
▁sino 5987
ntium 5988
▁Vino 5989
多样 5990
אנס 5991
도시 5992
▁bosib 5993
▁посто 5994
▁англ 5995
توقف 5996
▁ഉപയോഗ 5997
▁ብሔራዊ 5998
▁proportion 5999
cioso 6000
▁Welt 6001
세기 6002
▁Elektri 6003
▁assina 6004
▁leilighet 6005
▁ھازىر 6006
▁tuotanto 6007
แถว 6008
痛 6009
oro 6010
▁התורה 6011
mil 6012
lıkla 6013
▁والط 6014
...) 6015
▁заасан 6016
▁bought 6017
▁আলো 6018
▁koyu 6019
▁font 6020
வற்றை 6021
െത്തി 6022
▁घेतले 6023
▁interviu 6024
▁fly 6025
किन 6026
▁quasi 6027
▁Deve 6028
работва 6029
sza 6030
▁ለእ 6031
援助 6032
▁artırılması 6033
merke 6034
ଷ୍ଟା 6035
館 6036
▁беш 6037
нып 6038
dad 6039
▁betalning 6040
inaweza 6041
足够 6042
▁realizará 6043
▁პროცეს 6044
ochtend 6045
▁Faci 6046
▁కాల్ 6047
." 6048
티 6049
▁வந்தது 6050
▁Xwe 6051
▁алкоголь 6052
타 6053
▁milk 6054
▁بسيار 6055
詳 6056
侯 6057
詢問 6058
洗衣 6059
تصل 6060
▁Gelegenheit 6061
▁meliputi 6062
外交部 6063
▁شاخص 6064
▁10- 6065
▁Muna 6066
▁natuurlik 6067
▁Wong 6068
▁شاندار 6069
▁تستطيع 6070
其实 6071
▁vizito 6072
río 6073
ήμα 6074
▁tõesti 6075
▁médio 6076
itheoirí 6077
場合があります 6078
▁Aaron 6079
▁വേദന 6080
天地 6081
▁Зашто 6082
▁ada 6083
eth 6084
▁RPG 6085
öpp 6086
自由 6087
▁жеңіл 6088
▁kelti 6089
▁χαρά 6090
▁torrent 6091
▁ዘር 6092
65 6093
迎接 6094
អាហារ 6095
ящих 6096
▁Канада 6097
▁beint 6098
▁Ort 6099
▁פרסום 6100
▁உள் 6101
▁Biro 6102
▁Bikin 6103
меняется 6104
▁Италија 6105
▁хүрээ 6106
▁filius 6107
▁hum 6108
▁interesat 6109
▁singler 6110
크 6111
வர்களுக்கு 6112
▁tartoz 6113
금을 6114
▁tarif 6115
晋 6116
▁nyilvános 6117
▁ਚਾਰ 6118
ไบ 6119
吋 6120
грес 6121
▁menguasai 6122
▁mreža 6123
▁घेतली 6124
▁Berg 6125
▁darparu 6126
▁mezcla 6127
00,00 6128
▁kylmä 6129
▁led 6130
what 6131
ποίηση 6132
根 6133
rijke 6134
▁predsa 6135
▁envío 6136
ும 6137
igt 6138
menti 6139
▁పడి 6140
ማሪ 6141
▁Խաղ 6142
▁тарту 6143
▁job 6144
▁пријатели 6145
するための 6146
▁mision 6147
▁Wakil 6148
造成 6149
leider 6150
▁levende 6151
▁fel 6152
운 6153
なんです 6154
▁Robert 6155
▁taju 6156
▁аналог 6157
বাজার 6158
▁2012. 6159
original 6160
5.6 6161
เข้ม 6162
景色 6163
保持 6164
▁ਔਰਤ 6165
陕西 6166
(5) 6167
▁değerlendir 6168
깔 6169
॰ 6170
pia 6171
▁браузер 6172
▁Huu 6173
▁nangyari 6174
▁Lai 6175
相反 6176
▁দলের 6177
▁болжээ 6178
退 6179
▁inclou 6180
ვნის 6181
▁braku 6182
IGE 6183
▁aizsarg 6184
vení 6185
44 6186
▁страну 6187
▁Ант 6188
▁Пир 6189
EMENT 6190
तुर 6191
▁görüşme 6192
▁MJ 6193
सिया 6194
▁करीत 6195
▁дэвш 6196
▁کارگران 6197
mena 6198
▁hevos 6199
▁открыл 6200
▁vor 6201
▁dupla 6202
lid 6203
▁speelt 6204
想要 6205
▁jornal 6206
▁røde 6207
▁маја 6208
▁እውነት 6209
drag 6210
Лі 6211
던 6212
▁ilo 6213
/2 6214
▁Треб 6215
▁vette 6216
▁veb 6217
njom 6218
▁fre 6219
▁programy 6220
ēšanās 6221
ಿದ್ದೆ 6222
▁assim 6223
чкиот 6224
▁negle 6225
წამ 6226
min 6227
▁Định 6228
▁Qaranka 6229
▁manokana 6230
すこと 6231
hoff 6232
▁понуди 6233
ño 6234
▁liikunta 6235
▁lipnja 6236
▁reúne 6237
وضح 6238
▁procesul 6239
ndu 6240
kilde 6241
▁nor 6242
頁面 6243
▁probléma 6244
▁إنها 6245
▁26. 6246
▁Mette 6247
éag 6248
▁तिन 6249
▁Pro 6250
ช่องทาง 6251
▁verdien 6252
▁българи 6253
正如 6254
جانب 6255
▁Woord 6256
▁bedoeld 6257
ketten 6258
▁wuxuuna 6259
▁Brasileiro 6260
prowadza 6261
▁לשמור 6262
jelölt 6263
evro 6264
▁ignore 6265
もらえる 6266
▁27. 6267
Хамгийн 6268
DIO 6269
▁Затоа 6270
νεται 6271
▁κολ 6272
et 6273
ER 6274
اهر 6275
▁Tek 6276
үүсү 6277
▁Adel 6278
▁barber 6279
▁dövrü 6280
kese 6281
▁為 6282
▁получать 6283
ກອງ 6284
ضخم 6285
艇 6286
喻 6287
콜걸 6288
フォーム 6289
▁Bas 6290
kuthi 6291
▁чиг 6292
▁espécie 6293
▁vit 6294
▁ictimaiyyət 6295
ถวาย 6296
建立 6297
▁28. 6298
探し 6299
▁jeudi 6300
▁қаласының 6301
lichen 6302
▁չենք 6303
不会 6304
▁хэрэглэгч 6305
角 6306
tämällä 6307
igoj 6308
▁opportun 6309
УРА 6310
▁വിമാന 6311
太空 6312
▁гараж 6313
133 6314
▁gamitin 6315
▁нагород 6316
തേ 6317
▁comprende 6318
统 6319
▁imani 6320
▁közt 6321
สมเด็จพระ 6322
tava 6323
ұқ 6324
Esport 6325
hui 6326
គាត់ 6327
బోయ 6328
不去 6329
ജന് 6330
६५ 6331
ologi 6332
kodás 6333
▁escreve 6334
јам 6335
రస 6336
命 6337
र्जी 6338
▁198 6339
schie 6340
▁خاور 6341
obec 6342
łu 6343
▁потребителя 6344
▁предложил 6345
▁ჩანაწერ 6346
nto 6347
▁orixinal 6348
▁Pal 6349
平臺 6350
साहेब 6351
ແຫ່ງຊາດ 6352
▁اثرات 6353
▁University 6354
йтін 6355
lyn 6356
▁Maž 6357
▁Graz 6358
ován 6359
тою 6360
cidade 6361
▁तद् 6362
▁បំ 6363
▁unabhängig 6364
關心 6365
▁rat 6366
ювали 6367
ez 6368
▁ute 6369
▁Kulit 6370
kundi 6371
▁390 6372
▁заиста 6373
▁ordem 6374
IEM 6375
нуцца 6376
Манас 6377
အဖ 6378
ბერი 6379
▁됐다 6380
▁aký 6381
systemen 6382
יחת 6383
math 6384
▁spomen 6385
でしょう 6386
takt 6387
ገባው 6388
▁luftës 6389
ējums 6390
eme 6391
景 6392
▁νέου 6393
▁αίμα 6394
▁virksomheden 6395
▁hat 6396
ssi 6397
赏 6398
▁opdage 6399
輯 6400
▁এলাকা 6401
▁DEC 6402
járás 6403
▁колега 6404
วุฒิ 6405
▁nämligen 6406
▁beträgt 6407
▁slapukus 6408
未来 6409
▁labiausiai 6410
tidningen 6411
充実 6412
▁grec 6413
ציוד 6414
▁риз 6415
מינה 6416
帰り 6417
▁sollicit 6418
▁talabalar 6419
區的 6420
▁mural 6421
▁Lehet 6422
▁up 6423
▁Λέ 6424
▁bre 6425
▁Ry 6426
▁fl 6427
▁справі 6428
草 6429
▁nadležn 6430
▁malá 6431
▁Est 6432
MARK 6433
▁český 6434
▁träna 6435
っても 6436
根据 6437
Џ 6438
▁ത്ഥി 6439
▁Ушул 6440
▁maande 6441
jamā 6442
▁مارك 6443
▁sous 6444
▁NË 6445
▁dobrym 6446
▁bredt 6447
chadh 6448
▁emango 6449
▁kapta 6450
让她 6451
▁geldt 6452
を見た 6453
▁wahrscheinlich 6454
▁மலை 6455
▁banken 6456
▁рећи 6457
▁napriek 6458
▁Mah 6459
OFF 6460
阻止 6461
说是 6462
PRA 6463
▁Kır 6464
饮食 6465
素晴らしい 6466
口コミ 6467
薇 6468
▁Jl 6469
▁Hrvatskog 6470
▁Толькі 6471
▁Johansson 6472
ELLA 6473
▁poduze 6474
▁variedad 6475
טס 6476
369 6477
Mobile 6478
▁carrière 6479
▁уметност 6480
政治 6481
▁iesnieg 6482
▁týmto 6483
▁genu 6484
▁pokušava 6485
▁barev 6486
▁FOTOLAR 6487
०८ 6488
ದಾಗ 6489
春 6490
essere 6491
दुर 6492
▁ons 6493
tav 6494
ওয়ে 6495
үнөн 6496
▁tenham 6497
▁Első 6498
▁मधेश 6499
▁FORMA 6500
▁کاربردی 6501
葡萄 6502
▁elämää 6503
मराठ 6504
▁satis 6505
úr 6506
студ 6507
▁mesura 6508
するか 6509
வற்ற 6510
▁адзнач 6511
zor 6512
▁Bölüm 6513
▁משפטי 6514
▁الاتصال 6515
▁تىر 6516
cou 6517
贺 6518
▁ቃለ 6519
▁етаж 6520
h 6521
▁Li 6522
▁prefer 6523
簿 6524
返済 6525
土耳其 6526
épített 6527
ປັບປຸງ 6528
▁Botëror 6529
▁vend 6530
bescherming 6531
▁Simone 6532
▁dúbida 6533
▁قضایی 6534
▁corn 6535
▁pomóc 6536
▁إنتاج 6537
▁Bow 6538
▁വീട്ടില് 6539
osi 6540
isci 6541
▁nekünk 6542
▁aplicaciones 6543
▁bland 6544
▁жената 6545
▁चलते 6546
▁Roman 6547
PIC 6548
ភ្ល 6549
▁решить 6550
▁новыя 6551
▁Dans 6552
▁линија 6553
▁Thu 6554
não 6555
事件 6556
teller 6557
▁hwyl 6558
ෙමින් 6559
▁Army 6560
一年 6561
▁міг 6562
是可以 6563
改革 6564
▁priču 6565
機票 6566
▁Bwana 6567
指出 6568
▁aktyvi 6569
▁детал 6570
▁Filmen 6571
▁අධික 6572
▁เหรียญ 6573
▁글 6574
6-1 6575
▁مذہب 6576
back 6577
तया 6578
▁показывает 6579
▁ah 6580
▁naziva 6581
正式 6582
strada 6583
▁hàm 6584
Δ 6585
ທຶນ 6586
亭 6587
进来 6588
ኗ 6589
▁모든 6590
检验 6591
新たな 6592
hash 6593
恵 6594
▁Cymdeithas 6595
▁rəisi 6596
▁ماہرین 6597
▁дазваляе 6598
▁Lääne 6599
▁Bel 6600
▁qarax 6601
నాడు 6602
bou 6603
શક્તિ 6604
▁भाषण 6605
per 6606
lot 6607
▁паслуг 6608
▁oktyabr 6609
αστικό 6610
▁vurğu 6611
thā 6612
▁tini 6613
▁nyere 6614
▁саналат 6615
kumen 6616
的一切 6617
▁Afrik 6618
▁each 6619
ељ 6620
▁Заң 6621
▁YouTube 6622
ИНА 6623
▁सरकारने 6624
ché 6625
▁kalitesi 6626
▁гүл 6627
▁stavební 6628
的做法 6629
▁Позна 6630
hjul 6631
cit 6632
▁Hydro 6633
▁Eliza 6634
▁додава 6635
▁العسكري 6636
lú 6637
胆 6638
▁اذ 6639
▁nitko 6640
Bo 6641
袖 6642
租赁 6643
巧克力 6644
໋ 6645
vam 6646
бактылуу 6647
ades 6648
ein 6649
▁великі 6650
▁tietokone 6651
lep 6652
▁дешава 6653
▁پورے 6654
syn 6655
thur 6656
دىڭ 6657
kant 6658
grepp 6659
提起 6660
▁यासाठी 6661
▁Aristo 6662
Οι 6663
▁Habita 6664
हृ 6665
帮助 6666
▁собственник 6667
sos 6668
ніцтва 6669
Start 6670
▁нысан 6671
好玩 6672
▁67 6673
▁ມະ 6674
▁populära 6675
-2007 6676
Man 6677
▁hösten 6678
▁ສຽງ 6679
▁genera 6680
▁140 6681
▁presă 6682
коммун 6683
uch 6684
ทิศ 6685
▁Efekt 6686
idan 6687
บัว 6688
令 6689
gondol 6690
Школ 6691
работодател 6692
େଶ 6693
▁ସ୍ଥାନ 6694
dingen 6695
▁Kahit 6696
▁ágy 6697
▁envolv 6698
▁إس 6699
การเรียนรู้ 6700
▁саясаты 6701
▁Fórum 6702
▁olcsó 6703
阅读全文 6704
▁bármilyen 6705
▁Fall 6706
▁dukungan 6707
9% 6708
▁kiemelt 6709
職員 6710
envoyer 6711
▁مطلق 6712
▁szépen 6713
▁Cerca 6714
nefndar 6715
▁mampi 6716
▁log 6717
JET 6718
也沒有 6719
▁लागले 6720
krot 6721
▁316 6722
▁ప్రచారం 6723
▁वही 6724
▁schimbare 6725
▁tutvust 6726
▁Към 6727
MB 6728
-36 6729
लम 6730
▁зору 6731
▁parlamentare 6732
પલ 6733
▁سلا 6734
▁okraj 6735
▁спрем 6736
▁universitari 6737
▁detalle 6738
▁bénéficier 6739
ებელ 6740
岗 6741
漂 6742
▁зөвлөл 6743
लौ 6744
▁fortalte 6745
贵州 6746
וקה 6747
ລາຍການ 6748
▁godkänner 6749
▁med 6750
▁Ele 6751
▁říct 6752
เจาะ 6753
▁blockchain 6754
装 6755
▁تنظيف 6756
▁أف 6757
▁الثورة 6758
dob 6759
▁односа 6760
▁Црне 6761
▁întreb 6762
▁south 6763
HTML 6764
▁مونکي 6765
esh 6766
რილ 6767
▁Projekti 6768
▁polisen 6769
▁जै 6770
by 6771
iy 6772
papir 6773
Ռուսաստան 6774
rri 6775
▁heild 6776
▁challenges 6777
289 6778
▁riep 6779
▁darbinieki 6780
▁nærmeste 6781
tara 6782
uyorum 6783
▁పది 6784
▁Auch 6785
▁keçən 6786
اهو 6787
▁आयो 6788
▁onay 6789
тыс 6790
▁20% 6791
▁planera 6792
bok 6793
ίσουμε 6794
punten 6795
但 6796
▁büdcə 6797
rol 6798
Քաղաք 6799
communica 6800
▁Nikon 6801
▁quand 6802
זיקה 6803
монт 6804
▁talar 6805
Ro 6806
ολογική 6807
必 6808
MANI 6809
▁volem 6810
▁என்றார் 6811
▁۱۳۹۴ 6812
社會 6813
ೀನ್ 6814
▁තෝරා 6815
stin 6816
ЛЫҚ 6817
▁fórmula 6818
ਰਜ 6819
מטי 6820
▁संपूर्ण 6821
▁hi 6822
rædd 6823
社群 6824
▁highlight 6825
▁ඉහත 6826
▁Dafür 6827
▁تۈرك 6828
▁höll 6829
▁vähene 6830
bah 6831
▁izraz 6832
▁समोर 6833
▁Bildung 6834
พิษ 6835
就職 6836
▁ხალხი 6837
▁obrazu 6838
▁herlig 6839
▁acquistare 6840
▁xir 6841
大家的 6842
▁સમયે 6843
▁શબ્દ 6844
▁ПОД 6845
mellett 6846
גברים 6847
▁· 6848
ines 6849
▁înalt 6850
裡 6851
▁quebra 6852
的品牌 6853
▁pravico 6854
52 6855
▁느낌 6856
ัท 6857
▁Ninja 6858
▁Σημ 6859
▁Bad 6860
▁સરસ 6861
hjemme 6862
sme 6863
▁pokol 6864
பக 6865
▁faktura 6866
▁дође 6867
اتك 6868
▁დარჩე 6869
▁୧୮ 6870
▁κυρ 6871
氛围 6872
ъци 6873
探讨 6874
ર્થ 6875
端 6876
紛 6877
nicama 6878
弾 6879
▁Pembangunan 6880
▁ražošana 6881
▁lasīt 6882
志愿者 6883
زوج 6884
▁jumla 6885
uja 6886
esterno 6887
▁немало 6888
တုိ 6889
lt 6890
uto 6891
▁Hamid 6892
所需的 6893
manni 6894
غط 6895
situation 6896
▁toimuva 6897
TS 6898
MÄ 6899
레 6900
алагічны 6901
sorti 6902
▁płat 6903
▁check 6904
▁құқықтары 6905
的に 6906
罗 6907
▁plantea 6908
▁multiplica 6909
▁branitelj 6910
▁trend 6911
ERING 6912
▁السكر 6913
▁жою 6914
▁γ 6915
▁testat 6916
性 6917
▁hesabı 6918
▁Ох 6919
88 6920
GAM 6921
ทริป 6922
明明 6923
▁لاره 6924
याः 6925
바 6926
ものと 6927
▁contribution 6928
貿 6929
▁открыты 6930
ತರ 6931
喉 6932
plí 6933
▁ákvörðun 6934
▁Link 6935
▁többször 6936
▁මල 6937
ό 6938
zwa 6939
哪个 6940
▁дитина 6941
▁kļūst 6942
▁Kultur 6943
▁अगले 6944
▁හොඳම 6945
▁ken 6946
▁caminha 6947
нтов 6948
▁রোড 6949
▁többség 6950
▁निघ 6951
ishi 6952
▁ಹಂತ 6953
▁alaturi 6954
발 6955
biler 6956
▁teised 6957
▁បក្ស 6958
▁mann 6959
▁méně 6960
▁bayaran 6961
别 6962
▁Тэг 6963
▁praznik 6964
▁Vader 6965
· 6966
▁Nga 6967
▁reaktion 6968
áček 6969
ค่าใช้จ่าย 6970
▁uzoq 6971
▁فخر 6972
▁rike 6973
aattori 6974
rais 6975
▁Wohl 6976
▁duhur 6977
▁pont 6978
క్త 6979
стрем 6980
▁güvenli 6981
这部 6982
ไม่เกิน 6983
▁شپ 6984
▁préfér 6985
连 6986
▁turistik 6987
▁organisationer 6988
▁raisons 6989
▁karaa 6990
लिन 6991
▁предлагает 6992
▁Grand 6993
▁போக 6994
運 6995
ुभयो 6996
▁eguna 6997
istas 6998
▁প্রয়োজন 6999
anto 7000
2% 7001
▁viikolla 7002
▁입 7003
▁zərər 7004
▁רואה 7005
lise 7006
역 7007
▁визу 7008
募 7009
ାଳୟ 7010
▁Gesundheits 7011
▁kannalta 7012
▁جيدا 7013
▁1860 7014
කරණය 7015
▁foregår 7016
は何 7017
▁Крис 7018
▁منهن 7019
жақты 7020
штаб 7021
シ 7022
▁เส้นเลือดขอด 7023
jährigen 7024
3,0 7025
▁എഴുത്ത 7026
▁ընտրություններ 7027
Diagnos 7028
▁შვილი 7029
rea 7030
造 7031
▁symboli 7032
īns 7033
ddf 7034
▁Ausgabe 7035
▁Miño 7036
▁ത്തക 7037
민 7038
▁Ties 7039
▁၁၃ 7040
ķer 7041
urs 7042
▁العاب 7043
tykset 7044
БЛ 7045
72 7046
▁основні 7047
nyt 7048
▁vakker 7049
ค่าย 7050
▁Haku 7051
elyje 7052
mien 7053
నంద 7054
▁സംശയ 7055
tietojen 7056
톡 7057
pakka 7058
▁element 7059
▁Yıldırım 7060
▁but 7061
▁rejstřík 7062
sent 7063
数据 7064
▁včera 7065
ІС 7066
787 7067
▁Catal 7068
▁dövründə 7069
トル 7070
▁Ermənistanın 7071
álnej 7072
大道 7073
▁Uyg 7074
▁медичн 7075
▁באש 7076
▁Oak 7077
4.00 7078
álacha 7079
▁10.30 7080
▁1992 7081
▁silencio 7082
▁homo 7083
第一個 7084
ຫັດ 7085
▁kikao 7086
▁conductor 7087
path 7088
ဖြေ 7089
türk 7090
▁სკოლა 7091
čnog 7092
極 7093
tzako 7094
▁पर्वत 7095
яны 7096
mbra 7097
▁Krom 7098
▁Мили 7099
▁ढा 7100
▁particulares 7101
▁ضرورة 7102
▁consulter 7103
▁aquilo 7104
▁busnes 7105
▁peccato 7106
plaz 7107
▁baud 7108
▁ranka 7109
와의 7110
lógico 7111
▁Shko 7112
▁more 7113
техничк 7114
向前 7115
IKK 7116
▁kilala 7117
上次 7118
sikiliza 7119
▁সাহিত্য 7120
▁מצליח 7121
▁श्रम 7122
▁bekväm 7123
ことを 7124
▁höfðu 7125
▁gespeel 7126
以前 7127
▁cunosc 7128
hay 7129
場面 7130
食べる 7131
ctos 7132
▁అందు 7133
▁arvamus 7134
▁немец 7135
▁Maio 7136
▁Experten 7137
ලක් 7138
▁alimento 7139
▁culturel 7140
शः 7141
▁Fonda 7142
þe 7143
▁symptom 7144
▁skrivit 7145
▁militaire 7146
▁ආදර 7147
多 7148
▁YAP 7149
在国内 7150
▁shiga 7151
▁свете 7152
▁aspects 7153
▁پات 7154
▁Nor 7155
bogen 7156
▁book 7157
▁sincs 7158
惑 7159
piac 7160
括 7161
毀 7162
▁hjálpa 7163
137 7164
▁fil 7165
DOWNLOAD 7166
▁sam 7167
ေကာက္ 7168
▁Kompleks 7169
él 7170
▁자세한 7171
▁अंदर 7172
▁omfattende 7173
ที่กําลัง 7174
▁poderán 7175
▁nafsu 7176
▁приводит 7177
▁hmot 7178
tension 7179
▁работници 7180
393 7181
Imp 7182
váltás 7183
مايدۇ 7184
تنظيم 7185
engine 7186
визи 7187
tor 7188
▁независим 7189
されている 7190
▁nick 7191
KIL 7192
्जा 7193
תכו 7194
▁sundheds 7195
ρης 7196
▁chặn 7197
uru 7198
عالج 7199
▁demografi 7200
▁tradisi 7201
▁וועג 7202
liste 7203
sebenza 7204
▁keino 7205
▁1991 7206
rreko 7207
▁anmeldelse 7208
weg 7209
ാഴ്ച 7210
과 7211
▁intenc 7212
茫 7213
魏 7214
دغې 7215
▁yanğın 7216
義大利 7217
なのですが 7218
▁domů 7219
σι 7220
올림픽 7221
κάλυψη 7222
必要 7223
▁Raz 7224
都有 7225
빅 7226
▁Milliarden 7227
▁biggest 7228
▁ήθελα 7229
אַקט 7230
ulator 7231
▁Wirkung 7232
vej 7233
▁henhold 7234
▁zegoen 7235
▁Brin 7236
▁tokrat 7237
ээсээ 7238
▁Trots 7239
ულო 7240
ā 7241
▁Telugu 7242
מבנה 7243
▁front 7244
baini 7245
▁memnun 7246
个人 7247
sir 7248
▁Hinter 7249
زات 7250
▁Bizi 7251
kap 7252
▁פרע 7253
▁interesser 7254
▁MB 7255
▁되면 7256
▁жилд 7257
▁järk 7258
ಬಿಗ್ 7259
▁different 7260
ശീല 7261
▁славян 7262
▁استاندار 7263
▁퇴 7264
กิจ 7265
▁mendoj 7266
undangan 7267
▁metal 7268
▁Karten 7269
▁dragen 7270
ുമൊക്കെ 7271
పేట 7272
glej 7273
SH 7274
在那 7275
▁rental 7276
▁condena 7277
▁verf 7278
iisii 7279
▁consultant 7280
ngkok 7281
轨 7282
▁timme 7283
獄 7284
▁1-4 7285
موت 7286
▁ফেসবুক 7287
抵抗 7288
▁Hizmet 7289
သမ္မတ 7290
ry 7291
▁بشپړ 7292
▁ડૉ 7293
▁хоногийн 7294
▁السابع 7295
▁ant 7296
▁사는 7297
▁Narayan 7298
▁Vijesti 7299
▁remek 7300
▁document 7301
όσ 7302
▁kiiresti 7303
▁tulevat 7304
▁dhamaan 7305
tevi 7306
▁Nel 7307
くれる 7308
▁from 7309
▁Falle 7310
▁ପ୍ରା 7311
▁heft 7312
▁betroffen 7313
▁súťaže 7314
▁AC 7315
/11/2018 7316
registrer 7317
▁fă 7318
▁választott 7319
▁부모 7320
ຢູ 7321
▁provis 7322
▁ಕಷ್ಟ 7323
sana 7324
▁interpretar 7325
ในวันที่ 7326
annan 7327
дент 7328
85 7329
▁पैदा 7330
лаад 7331
ाट 7332
▁siz 7333
▁møteplass 7334
FIN 7335
ේද 7336
▁яах 7337
杨欢 7338
瞬间 7339
婷 7340
▁idadi 7341
тігін 7342
▁sperimenta 7343
▁úspech 7344
▁Catholic 7345
▁zadań 7346
▁peranan 7347
▁while 7348
▁Нужно 7349
▁speciaal 7350
ber 7351
ଗୁଡିକ 7352
▁የአንድ 7353
▁įranga 7354
▁Informació 7355
పాటి 7356
ขนม 7357
gis 7358
▁ग्या 7359
staafu 7360
▁Bulu 7361
地区 7362
▁міндет 7363
▁드립니다 7364
BEL 7365
▁hali 7366
▁lomba 7367
▁Arabi 7368
games 7369
受理 7370
वाणी 7371
▁(39) 7372
▁Mir 7373
对他 7374
شین 7375
kleur 7376
3.0; 7377
آور 7378
▁Karimov 7379
à 7380
AK 7381
▁Kredi 7382
▁વાતો 7383
▁бош 7384
herbergi 7385
▁የቅ 7386
▁zwart 7387
59 7388
ሰነ 7389
ΑΚ 7390
ạ 7391
した場合 7392
rún 7393
vajadus 7394
49 7395
▁पड़ा 7396
▁செல்வ 7397
▁Министар 7398
▁аткаруу 7399
▁naredn 7400
晃 7401
槽 7402
钻 7403
▁можам 7404
攻略 7405
▁општини 7406
bar 7407
▁Bol 7408
▁Mont 7409
▁Ciidanka 7410
▁monitor 7411
▁listopadu 7412
▁കേള് 7413
نديون 7414
blo 7415
▁הטיפול 7416
empêche 7417
/10 7418
▁order 7419
▁Geno 7420
▁Serveis 7421
נין 7422
▁огр 7423
▁ai 7424
▁Kita 7425
ေကာ 7426
वू 7427
▁itsas 7428
▁екстре 7429
حية 7430
izi 7431
تعيين 7432
▁cultivo 7433
▁이르 7434
pesu 7435
eniu 7436
▁තරම 7437
不见 7438
一直是 7439
పుడు 7440
▁product 7441
ಗೌಡ 7442
▁τρόπος 7443
▁Laki 7444
▁palk 7445
▁TA 7446
öð 7447
дира 7448
▁വെച്ച 7449
問 7450
▁patogu 7451
▁süreç 7452
▁Ph 7453
▁MHP 7454
i 7455
▁van 7456
▁As 7457
nike 7458
▁исследова 7459
▁võimaluse 7460
cil 7461
▁LINE 7462
▁статистик 7463
柴 7464
譽 7465
途径 7466
约翰 7467
实验室 7468
挨 7469
▁балл 7470
▁хэлэлц 7471
▁6- 7472
▁Keuangan 7473
▁Br 7474
▁ரூபாய் 7475
▁통해 7476
▁خواجہ 7477
▁કવિતા 7478
cházejí 7479
▁Tiếp 7480
东 7481
▁საბჭოს 7482
▁Hon 7483
MW 7484
▁아동 7485
▁svētki 7486
▁vitória 7487
udu 7488
▁zyrtare 7489
▁Haw 7490
▁ಹಾಗ 7491
▁TE 7492
żał 7493
느 7494
▁Ifølg 7495
International 7496
գնա 7497
nek 7498
ões 7499
تعل 7500
▁행위 7501
qvist 7502
വം 7503
42 7504
ැති 7505
liğinde 7506
▁आती 7507
▁команды 7508
He 7509
▁cercano 7510
дердин 7511
原因 7512
▁انتظامی 7513
tulis 7514
đeni 7515
▁ran 7516
▁ngayo 7517
ගත්ත 7518
▁Ingin 7519
▁Yeni 7520
▁kubo 7521
有一定的 7522
▁multo 7523
lı 7524
▁feia 7525
▁critical 7526
▁fortelle 7527
ทดลอง 7528
êm 7529
▁detaylı 7530
fla 7531
▁гезит 7532
▁araşdırma 7533
▁persoană 7534
raid 7535
▁major 7536
▁jarraitzen 7537
▁pagină 7538
▁നാലു 7539
anza 7540
▁schauen 7541
▁îţi 7542
▁circles 7543
▁House 7544
▁இன 7545
▁helbest 7546
▁өңдеу 7547
▁Павлов 7548
▁Систем 7549
▁post 7550
високи 7551
▁Drop 7552
եին 7553
▁igualmente 7554
▁Jam 7555
▁pripremi 7556
▁Iulia 7557
pall 7558
▁materialet 7559
▁plz 7560
▁chcel 7561
▁தோன்ற 7562
▁enfermedades 7563
业务 7564
▁Sierra 7565
కాలం 7566
▁sci 7567
▁पाप 7568
vous 7569
policy 7570
ឌី 7571
jung 7572
▁worst 7573
▁ಹೂ 7574
現 7575
ドル 7576
▁भगव 7577
menes 7578
▁ਵੇ 7579
nih 7580
▁acidente 7581
员 7582
▁монопол 7583
▁poté 7584
▁alî 7585
▁शीर्ष 7586
áil 7587
؟“ 7588
你说 7589
poana 7590
SO 7591
▁dres 7592
▁çekme 7593
▁Temat 7594
▁спя 7595
▁කවුරු 7596
指挥 7597
▁Byd 7598
凭借 7599
පං 7600
▁luften 7601
បញ្ជី 7602
▁pemikiran 7603
스타그램 7604
▁ngọt 7605
▁كۆرسىت 7606
最近 7607
▁ինքը 7608
รถไฟ 7609
دیا 7610
晚餐 7611
▁curva 7612
▁shvati 7613
▁Custom 7614
▁Večer 7615
▁kıs 7616
카 7617
▁razreda 7618
▁שונה 7619
activitats 7620
▁сабой 7621
▁pokoju 7622
な 7623
▁našoj 7624
Сан 7625
▁občut 7626
▁226 7627
▁fenomeno 7628
▁capabil 7629
മന്ത്രി 7630
▁domhain 7631
▁modtager 7632
ขนส่ง 7633
▁نفرت 7634
kiewicz 7635
▁saadaan 7636
けど 7637
當年 7638
▁teel 7639
vrt 7640
خري 7641
党 7642
ഘട്ട 7643
ientes 7644
▁ceci 7645
から 7646
▁cro 7647
▁breytt 7648
整 7649
gęs 7650
▁iznad 7651
▁moottori 7652
▁ປະທານ 7653
貧 7654
▁груб 7655
▁bermaksud 7656
▁തകര് 7657
▁الشريف 7658
ەڭ 7659
kti 7660
▁soluções 7661
▁Uri 7662
▁президенти 7663
▁başladığı 7664
費 7665
▁Valla 7666
▁tendência 7667
▁isključivo 7668
▁Der 7669
ム 7670
ብዙ 7671
▁호텔 7672
тельное 7673
雪 7674
▁допустим 7675
בלע 7676
▁സാഹചര്യ 7677
adu 7678
▁emenda 7679
válasz 7680
▁Ghost 7681
kék 7682
▁ambition 7683
ордон 7684
biasa 7685
▁mīl 7686
▁kožo 7687
▁ଆଦି 7688
( 7689
▁Co 7690
ทับ 7691
▁குறித்த 7692
▁યોજ 7693
susi 7694
zes 7695
▁шляху 7696
hli 7697
▁ہل 7698
셜 7699
オンライン 7700
แขก 7701
éducation 7702
▁bliadhna 7703
▁aus 7704
▁dol 7705
▁Ақтөбе 7706
▁סעיף 7707
itä 7708
▁tüdruk 7709
▁заснован 7710
▁mondani 7711
감 7712
ختص 7713
andha 7714
▁लाइफ 7715
nke 7716
▁အသက် 7717
▁الفرنسية 7718
▁skrywer 7719
▁estación 7720
▁Edel 7721
▁Balance 7722
▁Jinak 7723
stämma 7724
▁زند 7725
▁expresa 7726
▁uile 7727
ή 7728
jus 7729
▁kolorze 7730
tiv 7731
▁Howard 7732
ेत् 7733
▁vəzifələr 7734
prostred 7735
▁Goo 7736
گيري 7737
▁стабилност 7738
▁Carbon 7739
▁aims 7740
ಾಗುವ 7741
▁죄 7742
▁jāie 7743
▁obchodu 7744
▁sürət 7745
▁我 7746
▁knulle 7747
早い 7748
csok 7749
▁հանդիպման 7750
ers 7751
▁เที่ยว 7752
▁Adem 7753
▁øye 7754
▁дайым 7755
▁پیچ 7756
CA 7757
▁nijak 7758
▁bæta 7759
ανά 7760
▁праблем 7761
ائى 7762
▁skum 7763
▁લઇ 7764
csap 7765
Категорија 7766
沙 7767
rni 7768
▁əmlak 7769
uð 7770
dición 7771
ಗೊ 7772
▁ontem 7773
ച് 7774
ወድ 7775
▁الثالثة 7776
çiler 7777
一定是 7778
▁trods 7779
čiams 7780
▁Log 7781
dıklarını 7782
१३ 7783
的關係 7784
▁көш 7785
▁generacij 7786
▁mok 7787
▁uporabljamo 7788
rzec 7789
▁Verdi 7790
▁සේවක 7791
▁dårlige 7792
▁similares 7793
▁Wag 7794
ываем 7795
rako 7796
▁kompanija 7797
▁принципе 7798
339 7799
witch 7800
▁ຫມາຍ 7801
ziert 7802
▁kokë 7803
சரி 7804
ляли 7805
▁이하 7806
дачу 7807
▁Sara 7808
▁znakov 7809
▁2,000 7810
▁జరిగి 7811
▁भारतको 7812
plo 7813
▁regarder 7814
▁internazionali 7815
▁IMF 7816
▁bewust 7817
操作 7818
▁පිලි 7819
ОВЕ 7820
被 7821
坎 7822
▁síðast 7823
▁spot 7824
erat 7825
▁මුලින්ම 7826
あ 7827
▁गरेपछि 7828
▁કઈ 7829
出现 7830
▁francés 7831
▁ଗଣ 7832
▁domače 7833
nl 7834
четком 7835
▁برائے 7836
▁Скоп 7837
ର୍ଟ 7838
為 7839
▁молча 7840
▁wawili 7841
▁materjali 7842
velmente 7843
▁বাংলাদেশে 7844
▁kuingia 7845
UJI 7846
▁cili 7847
росли 7848
▁Kvar 7849
▁Bro 7850
▁ସିଂହ 7851
▁ສູງ 7852
음 7853
▁måneden 7854
▁وشي 7855
MAI 7856
▁අයිතිය 7857
▁نيست 7858
节 7859
▁Зі 7860
ману 7861
ফিক 7862
▁болуш 7863
графія 7864
▁Drum 7865
▁почеток 7866
▁Өкмөт 7867
癒 7868
യറ്റ 7869
▁byla 7870
ljni 7871
इंग्रजी 7872
입 7873
▁příběh 7874
▁نباشد 7875
▁Symbol 7876
▁obračun 7877
▁Média 7878
▁übernehmen 7879
▁көрө 7880
ରିକ 7881
ēna 7882
000.000 7883
▁química 7884
▁чувствува 7885
▁نواب 7886
جلة 7887
umo 7888
▁දන්න 7889
ITAT 7890
▁жасаған 7891
wurk 7892
▁vaya 7893
leysi 7894
▁ಕೃಷ್ಣ 7895
le 7896
vano 7897
มูลค่า 7898
Bru 7899
tev 7900
▁kérdése 7901
▁DHA 7902
▁Coro 7903
▁אָנ 7904
▁defini 7905
▁extremo 7906
خلص 7907
нева 7908
acht 7909
▁калк 7910
▁ഒരേ 7911
▁Sim 7912
naise 7913
▁superbe 7914
ുണ്ടാക 7915
րած 7916
агдсан 7917
發出 7918
▁Albani 7919
们的 7920
▁grati 7921
▁žalost 7922
人民群众 7923
▁оформлен 7924
▁תה 7925
缴 7926
ార్థ 7927
好 7928
▁1994 7929
сік 7930
▁snaga 7931
▁Mart 7932
場合 7933
grader 7934
▁sèrie 7935
▁крім 7936
進步 7937
ន្ធ 7938
▁पढ़े 7939
へ 7940
▁eskualde 7941
تخصص 7942
▁riamh 7943
▁tərkib 7944
▁præsentere 7945
▁wyraż 7946
ೆಗೆ 7947
ពាន់ 7948
desh 7949
组织的 7950
paketti 7951
DO 7952
▁novi 7953
▁agradecer 7954
igien 7955
那些 7956
пес 7957
▁gleder 7958
▁жеткізу 7959
▁Studies 7960
มาถึง 7961
lüyü 7962
czesne 7963
교 7964
▁исключен 7965
也被 7966
仲間 7967
▁gonna 7968
▁særligt 7969
▁vẽ 7970
▁2012 7971
▁وجل 7972
▁verranno 7973
ෙට 7974
atan 7975
▁meski 7976
▁Страх 7977
แน่น 7978
▁béo 7979
▁vacker 7980
硕士 7981
лівы 7982
纠 7983
▁permes 7984
杆 7985
netz 7986
იყ 7987
▁pròpies 7988
▁Silahlı 7989
ຫຼວງ 7990
ikka 7991
▁సంతోష 7992
中央 7993
▁bud 7994
ARIO 7995
▁იცის 7996
kõ 7997
▁шинээр 7998
전주 7999
▁spremembe 8000
izadas 8001
ટિંગ 8002
股 8003
▁For 8004
iseret 8005
▁prenosi 8006
bordet 8007
▁vormi 8008
周り 8009
▁његово 8010
▁stat 8011
222 8012
баў 8013
▁ilmasto 8014
daki 8015
▁bunday 8016
▁mbështetje 8017
▁İz 8018
odon 8019
stveno 8020
河北 8021
▁पूर्वी 8022
▁cinsi 8023
സ്റ്റാ 8024
▁seksuaal 8025
▁reál 8026
▁Produkten 8027
▁hiervan 8028
บุก 8029
▁encontrará 8030
keria 8031
也有 8032
▁Konsum 8033
ведено 8034
flower 8035
收費 8036
loží 8037
▁манастира 8038
▁Asli 8039
争议 8040
▁ночь 8041
▁size 8042
▁Debrecen 8043
▁meni 8044
▁num 8045
▁правите 8046
mmmm 8047
ため 8048
▁získá 8049
▁במחיר 8050
▁അന്വേഷണം 8051
+ 8052
擴大 8053
▁Slova 8054
▁సమయం 8055
stup 8056
ដែលបាន 8057
▁משום 8058
▁баланы 8059
▁Maka 8060
जीवन 8061
שמאל 8062
ወል 8063
▁هاء 8064
လံ 8065
▁comentário 8066
▁маці 8067
▁genoemd 8068
▁команду 8069
▁sie 8070
▁Villa 8071
▁때는 8072
▁pārāk 8073
ទស្ស 8074
▁semestr 8075
iske 8076
takat 8077
▁הסת 8078
ਪੰਜਾਬ 8079
▁தெரிவித்த 8080
ımızı 8081
ເຮັດວຽກ 8082
постави 8083
▁yolları 8084
yzm 8085
▁ມາດ 8086
岁 8087
▁mababa 8088
▁бреме 8089
▁aggiunge 8090
▁Pil 8091
▁животу 8092
ന്നാ 8093
拥 8094
▁الرابع 8095
ମାନଙ୍କର 8096
收取 8097
wają 8098
sz 8099
မ်က္ႏွာ 8100
▁Model 8101
▁Sala 8102
▁izraža 8103
▁складається 8104
▁marknaden 8105
如此 8106
ΙΚ 8107
▁trương 8108
▁izbora 8109
փոստ 8110
▁Filipp 8111
▁jakoś 8112
atori 8113
▁Mikkel 8114
▁مشت 8115
獨特 8116
▁rrugën 8117
と言われています 8118
▁meisie 8119
ιμα 8120
▁ריי 8121
▁производството 8122
▁Matri 8123
▁Kudu 8124
适当 8125
그 8126
уудад 8127
eng 8128
индеги 8129
gut 8130
▁иду 8131
64 8132
ркі 8133
cină 8134
▁diskret 8135
దూ 8136
vulling 8137
▁peggio 8138
බැ 8139
▁jednotliv 8140
çek 8141
▁한다 8142
▁klubov 8143
ÁM 8144
▁days 8145
سٽر 8146
十分 8147
▁bogate 8148
▁الاجتماع 8149
إصابة 8150
▁line 8151
ески 8152
▁Tsa 8153
▁आफै 8154
▁идеолог 8155
▁Fin 8156
▁acci 8157
負擔 8158
▁infekcij 8159
ゆっくり 8160
ေက်းဇူး 8161
▁sənaye 8162
▁Tim 8163
▁arrivé 8164
▁байгуулсан 8165
▁stati 8166
▁excuse 8167
රයක් 8168
▁Thai 8169
人民 8170
▁επε 8171
▁ئايرى 8172
最後に 8173
▁consensu 8174
체계 8175
klī 8176
▁چلے 8177
▁Hour 8178
一样 8179
▁допълнителни 8180
▁Mục 8181
▁Kazan 8182
ផ 8183
kalbi 8184
▁Jun 8185
▁investigadores 8186
▁ego 8187
47 8188
ရုပ္ 8189
▁пришли 8190
ej 8191
▁^ 8192
▁pismo 8193
▁gril 8194
toria 8195
ిస్తుంది 8196
▁fyldt 8197
不过 8198
▁paliek 8199
Δεν 8200
離 8201
云 8202
▁şekil 8203
viya 8204
▁programul 8205
рық 8206
▁слави 8207
октябр 8208
阿姨 8209
јети 8210
頒 8211
放鬆 8212
వన్ 8213
▁nowoczesny 8214
▁közzé 8215
Đ 8216
▁Paradise 8217
▁explotación 8218
lice 8219
▁programação 8220
▁предпринима 8221
siga 8222
合成 8223
▁газраас 8224
ski 8225
ሱን 8226
γερ 8227
▁1:0 8228
▁цифров 8229
▁regtig 8230
步 8231
▁nemendur 8232
▁Galaxy 8233
▁адрас 8234
▁Lucia 8235
▁ارتقا 8236
▁40.000 8237
▁ugotovi 8238
▁LEG 8239
▁Xã 8240
ciu 8241
▁ጉዳት 8242
▁טיול 8243
▁hai 8244
▁फोरम 8245
忘记 8246
▁ජාති 8247
ราม 8248
を受けた 8249
ynghor 8250
Sim 8251
▁আলী 8252
▁autostrad 8253
ရောင် 8254
▁जरा 8255
являється 8256
modi 8257
varuste 8258
▁ubat 8259
ულს 8260
水平 8261
පල් 8262
▁stanja 8263
పర 8264
▁произнес 8265
ථා 8266
▁During 8267
▁revolucionar 8268
▁fatura 8269
迴 8270
▁limites 8271
譯 8272
▁aritu 8273
埔 8274
คาสิโน 8275
päätöksen 8276
▁idi 8277
▁καλοκαίρι 8278
▁skutečně 8279
▁mencintai 8280
▁매력 8281
▁хүмүүсийн 8282
▁zes 8283
▁делото 8284
▁batekin 8285
▁present 8286
torem 8287
▁నిన్న 8288
▁Între 8289
▁pit 8290
▁Σι 8291
ვედ 8292
▁ишмер 8293
žų 8294
▁პრი 8295
▁୩୦ 8296
▁miljoonaa 8297
ξ 8298
ставляет 8299
dt 8300
ducere 8301
матри 8302
ποί 8303
-15 8304
▁خوند 8305
ടക്കം 8306
▁познато 8307
०७ 8308
ue 8309
panta 8310
tissimi 8311
▁हॉ 8312
ସ୍ଥଳ 8313
ile 8314
▁měsíce 8315
▁օգտագործել 8316
▁билдирүү 8317
রুল 8318
កើត 8319
▁roof 8320
▁prova 8321
▁تبصره 8322
ประสิทธิภาพ 8323
▁Bölge 8324
▁특성 8325
▁obitelj 8326
▁Noel 8327
▁használható 8328
لوگ 8329
▁लढ 8330
▁때문 8331
▁Turku 8332
ໄຫ 8333
检察 8334
奮 8335
川 8336
嚇 8337
擾 8338
▁krí 8339
&#39; 8340
cco 8341
▁thánh 8342
leri 8343
مبادرة 8344
▁tradizionale 8345
▁تاسیس 8346
▁သူတို႔ 8347
cara 8348
▁získať 8349
▁करण्याचा 8350
▁देखते 8351
جبهة 8352
ህል 8353
▁discovered 8354
ämä 8355
▁státní 8356
他表示 8357
▁utila 8358
▁eelmise 8359
▁inspect 8360
权威 8361
▁извршен 8362
NAI 8363
იდი 8364
pass 8365
▁پیٹ 8366
▁Huis 8367
▁ikkuna 8368
▁Pa 8369
▁mois 8370
▁litrato 8371
▁considerare 8372
ასი 8373
mod 8374
▁둘 8375
▁буди 8376
▁vašu 8377
▁securi 8378
▁voeg 8379
▁report 8380
alaking 8381
▁Ons 8382
tuuri 8383
▁незна 8384
ਦਾਸ 8385
▁abertura 8386
설 8387
▁دولتي 8388
▁içer 8389
▁kawo 8390
▁लाई 8391
▁apropia 8392
ありました 8393
▁резко 8394
▁dicunt 8395
gwyd 8396
▁sumie 8397
▁chúc 8398
▁bozor 8399
▁okamžit 8400
名古屋 8401
สารสนเทศ 8402
ວັດທະນະທໍາ 8403
줘 8404
▁развитию 8405
▁Նրանք 8406
▁श्रद्धा 8407
간 8408
รุ่ง 8409
▁fodbold 8410
▁хэт 8411
子 8412
網站 8413
laşıb 8414
▁يزيد 8415
▁kirjoittaa 8416
Emp 8417
▁රටට 8418
совет 8419
Informa 8420
▁vreun 8421
tjes 8422
▁Není 8423
▁tortur 8424
▁Forslag 8425
yor 8426
ijk 8427
földi 8428
▁iritzi 8429
rilgan 8430
▁again 8431
기자 8432
▁spansk 8433
naendelea 8434
▁სპ 8435
▁dhí 8436
MS 8437
▁неким 8438
▁Offer 8439
▁Ей 8440
mbok 8441
نظار 8442
▁بيانات 8443
▁Ke 8444
त्स 8445
▁160 8446
▁Centro 8447
▁ზედა 8448
lmoqda 8449
▁paio 8450
mAh 8451
▁compromis 8452
▁Žensk 8453
സമ്പ 8454
落實 8455
▁코드 8456
夫 8457
▁investasi 8458
דון 8459
fir 8460
▁assisti 8461
ફે 8462
▁Склад 8463
ІТ 8464
ghas 8465
araw 8466
▁käib 8467
▁الاب 8468
▁RAZ 8469
येत् 8470
ome 8471
▁film 8472
ッ 8473
▁project 8474
▁distância 8475
▁Global 8476
▁звернення 8477
lanjut 8478
▁profite 8479
▁Ding 8480
▁muzeja 8481
ഹര 8482
▁guru 8483
▁носител 8484
▁befolkning 8485
ส้ม 8486
▁االله 8487
▁necesarias 8488
NIKA 8489
▁turite 8490
他还 8491
ЫР 8492
▁gawe 8493
▁crush 8494
▁خواسته 8495
運動 8496
▁jatkaa 8497
▁nacionais 8498
▁vecí 8499
▁vizibil 8500
5% 8501
lasse 8502
携 8503
чё 8504
▁Globo 8505
ღერ 8506
Так 8507
беларуску 8508
သင့် 8509
යෝග 8510
▁Mini 8511
▁ponaša 8512
daryti 8513
iausia 8514
相關 8515
3.3 8516
아트 8517
眼中 8518
לול 8519
cind 8520
রাই 8521
rb 8522
▁lietošanas 8523
ບໍລິສັດ 8524
▁Ø 8525
ത്തിനായി 8526
釋 8527
kho 8528
▁фамил 8529
▁dreng 8530
▁suffer 8531
ष्टा 8532
alle 8533
ಜ್ಞ 8534
▁الفور 8535
▁tohle 8536
▁érint 8537
睡觉 8538
▁ನೆನಪ 8539
ສະເຫນີ 8540
不過 8541
▁Inggeris 8542
▁7.2 8543
▁нууц 8544
stitu 8545
▁Jozef 8546
▁Процес 8547
▁vrch 8548
▁nemocnice 8549
▁қаласында 8550
bed 8551
▁nekako 8552
▁මෙහිදී 8553
▁mahupun 8554
▁рекла 8555
▁20- 8556
▁Wer 8557
搬家 8558
▁maliyet 8559
▁Pearl 8560
▁riittää 8561
▁novým 8562
▁experiences 8563
▁lág 8564
ပါပဲ။ 8565
跟著 8566
▁ලැබේ 8567
arak 8568
▁potestate 8569
sposo 8570
▁maha 8571
▁dokumenty 8572
▁totalement 8573
▁നായകന 8574
▁ile 8575
笑着 8576
▁Reme 8577
kkari 8578
ilised 8579
puter 8580
▁polis 8581
▁olasz 8582
▁жұмысы 8583
færslu 8584
0.7 8585
▁modem 8586
▁baas 8587
设备 8588
▁ember 8589
▁ოჯახის 8590
▁Интересно 8591
зул 8592
▁Pos 8593
▁Kranj 8594
▁hartzeko 8595
▁приехал 8596
rul 8597
▁Hindistan 8598
▁and 8599
▁1989 8600
വിട 8601
aider 8602
▁öğrencilerin 8603
ค้น 8604
tivní 8605
▁domni 8606
oucí 8607
监控 8608
とにかく 8609
룩 8610
פתרונות 8611
▁oh 8612
▁perlawanan 8613
▁vurğulayıb 8614
例 8615
▁xarunta 8616
iran 8617
սենյակ 8618
▁Разбира 8619
▁facilities 8620
▁maarufu 8621
ima 8622
▁नेम 8623
พระเจ้า 8624
▁चिकित्सक 8625
▁ramane 8626
▁kontinu 8627
▁tanssi 8628
▁продуктів 8629
▁Supra 8630
ところが 8631
▁менің 8632
▁Wij 8633
فائل 8634
ovice 8635
கிறேன் 8636
เสือ 8637
▁שמן 8638
然后 8639
ärer 8640
hre 8641
內心 8642
liyinə 8643
ven 8644
-17 8645
▁onderstaande 8646
Stat 8647
isilla 8648
县 8649
ジ 8650
151 8651
ROL 8652
AGO 8653
夏 8654
▁решението 8655
DS 8656
▁തോന്നി 8657
▁Open 8658
▁0,9 8659
কেল 8660
-16 8661
▁පට 8662
jó 8663
ुं 8664
खत 8665
በለ 8666
拘 8667
ၢ 8668
ə 8669
쓴 8670
▁funkcjonaln 8671
Cilvēk 8672
▁мобилни 8673
ford 8674
▁מישהו 8675
זמנים 8676
▁క్రీ 8677
▁yol 8678
▁елдің 8679
wiązk 8680
▁fag 8681
▁উপজেলার 8682
ಿಯನ್ 8683
▁Out 8684
▁ręcz 8685
什么时候 8686
▁kiinnostu 8687
▁comisión 8688
▁betrekking 8689
▁analist 8690
を食べ 8691
▁Špe 8692
iktų 8693
▁ruime 8694
▁petek 8695
348 8696
▁딱 8697
▁opinto 8698
운전 8699
hnout 8700
历史上 8701
liyində 8702
اچ 8703
▁vaših 8704
-6 8705
▁विल 8706
▁oportunitat 8707
▁szállítás 8708
▁මිනිහ 8709
▁Samsun 8710
തുകൊണ്ട് 8711
▁Game 8712
ഷൻ 8713
績 8714
قيد 8715
大學 8716
仓 8717
▁بگذار 8718
pój 8719
▁96 8720
зії 8721
▁किंमत 8722
▁vâ 8723
Asocio 8724
cyjną 8725
▁Sand 8726
▁многи 8727
▁bölgede 8728
โชค 8729
▁Schle 8730
▁helder 8731
ার্ট 8732
▁خطا 8733
ాయ్ 8734
ደቡብ 8735
▁miało 8736
▁Кому 8737
81 8738
ଦେଇ 8739
мија 8740
郊 8741
菲律宾 8742
圖書館 8743
▁Præ 8744
煎 8745
മത 8746
依據 8747
გამო 8748
▁frecuencia 8749
ere 8750
▁Mkutano 8751
cov 8752
▁Saat 8753
▁Skandinav 8754
▁강 8755
▁ونحن 8756
erek 8757
▁konung 8758
▁beställa 8759
bles 8760
baptis 8761
▁হওয়ার 8762
vre 8763
▁Kaf 8764
turk 8765
ປິດ 8766
▁Ping 8767
ιακής 8768
▁שינויים 8769
加以 8770
pes 8771
▁kapsul 8772
▁actuel 8773
化妝 8774
▁Tibb 8775
قاع 8776
▁Aztán 8777
▁Gary 8778
73 8779
▁organizasyon 8780
lənib 8781
treiben 8782
fest 8783
▁ਮਹਿ 8784
▁datë 8785
တာကို 8786
▁валюта 8787
օրինակ 8788
▁skaffe 8789
▁відкрив 8790
▁term 8791
▁نقص 8792
▁thing 8793
ঈ 8794
▁glavne 8795
▁బ్ల 8796
▁največji 8797
▁notable 8798
▁바다 8799
▁selam 8800
▁Move 8801
īri 8802
▁slu 8803
ചിത 8804
اعية 8805
льними 8806
ใช้บริการ 8807
独特的 8808
▁சம்ப 8809
▁nespo 8810
▁پڙه 8811
▁nebolo 8812
炉 8813
▁abuur 8814
▁humanist 8815
干净 8816
ఢ 8817
▁tre 8818
ズ 8819
주셔서 8820
튜 8821
▁dihasilkan 8822
▁genellikle 8823
▁хочешь 8824
▁münasibətilə 8825
burg 8826
▁स्वदेश 8827
▁халықтың 8828
▁قيد 8829
Gene 8830
ıç 8831
kil 8832
▁пределах 8833
שותף 8834
▁වර්ෂ 8835
த்தது 8836
▁samtliga 8837
▁संदर्भ 8838
人生 8839
▁なお 8840
▁افکار 8841
▁በቅ 8842
▁поднял 8843
▁„ 8844
ることで 8845
不对 8846
éért 8847
주년 8848
▁ringi 8849
▁testet 8850
ነቱን 8851
ੰਗਾ 8852
▁желаю 8853
▁indice 8854
ត្ត 8855
odd 8856
சிங்க 8857
က်င္းပ 8858
▁samlede 8859
▁करावे 8860
▁znajo 8861
باي 8862
▁절대 8863
▁rematar 8864
तुल 8865
МБ 8866
▁המון 8867
▁Deklar 8868
▁ဖုန္း 8869
不知道 8870
няв 8871
▁levo 8872
மர் 8873
ਜਰ 8874
づくり 8875
呵呵 8876
▁Закарпат 8877
旅游 8878
▁Председател 8879
mene 8880
▁કાર્યક્રમ 8881
▁sākumā 8882
客户 8883
▁bent 8884
▁prekin 8885
дневен 8886
tion 8887
游 8888
▁तौर 8889
адам 8890
▁حلف 8891
▁bona 8892
▁rádio 8893
▁Meslek 8894
▁løbe 8895
▁cri 8896
▁цяло 8897
▁actuacións 8898
▁எண் 8899
▁sti 8900
lamış 8901
東北 8902
magazin 8903
▁Fischer 8904
▁prego 8905
▁பெண்ண 8906
rap 8907
ধু 8908
▁casu 8909
▁катастрофа 8910
reiro 8911
一項 8912
▁скра 8913
▁요금 8914
▁cercando 8915
▁unnið 8916
▁päätös 8917
みる 8918
▁løn 8919
▁galerija 8920
隊 8921
▁assessor 8922
▁Одлука 8923
▁עסקי 8924
があると 8925
دے 8926
▁պատմության 8927
▁bru 8928
▁использован 8929
නයේ 8930
▁कपिल 8931
▁kulturne 8932
▁Mawrth 8933
官 8934
럭 8935
ยื่น 8936
▁بەرگەن 8937
bau 8938
▁설계 8939
▁förvänta 8940
▁juni 8941
▁África 8942
▁29. 8943
ушки 8944
不同的 8945
තාවය 8946
▁might 8947
וכח 8948
▁planlagt 8949
▁հի 8950
увався 8951
▁eftirfarandi 8952
λεκτρ 8953
▁ताज 8954
nay 8955
ah 8956
▁platform 8957
ằm 8958
▁tänava 8959
▁fiquei 8960
▁sembuh 8961
zeit 8962
▁treneri 8963
ひとり 8964
dzię 8965
LEV 8966
▁sikkerhet 8967
▁registaro 8968
eceksiniz 8969
تحول 8970
▁circa 8971
▁Вашите 8972
6,7 8973
有什麼 8974
▁Ayon 8975
▁anglais 8976
ישות 8977
▁جميعا 8978
CEP 8979
ੰਸ 8980
的專業 8981
▁dirigir 8982
▁adolescente 8983
гүүр 8984
jesti 8985
▁oder 8986
▁Kap 8987
ուխ 8988
是一个 8989
▁जाऊ 8990
他们在 8991
CAP 8992
▁qilinadi 8993
ພ້ອມ 8994
nor 8995
▁קני 8996
▁Nederland 8997
cionin 8998
Christ 8999
▁eight 9000
绑 9001
侵犯 9002
▁정확 9003
▁паўста 9004
កម្មករ 9005
เยือน 9006
▁VE 9007
cima 9008
เพียงแค่ 9009
▁убежден 9010
▁jan 9011
▁የኦሮሞ 9012
▁bereiken 9013
▁мањи 9014
▁indikator 9015
▁Mak 9016
▁जिम्मेवारी 9017
plní 9018
ဖြစ်ပြီး 9019
ങ്ങൾക്ക് 9020
GEM 9021
ڊا 9022
▁அவர்களுக்கு 9023
▁raam 9024
= 9025
vastus 9026
56 9027
यन्त्र 9028
▁Shu 9029
▁AR 9030
▁sieť 9031
▁musíme 9032
▁մարմնի 9033
起来 9034
▁pagalba 9035
פנים 9036
was 9037
สร้างความ 9038
▁begon 9039
wiki 9040
见过 9041
▁αλλα 9042
也不 9043
ovanou 9044
where 9045
▁bingo 9046
োনা 9047
▁beli 9048
▁المناسب 9049
辽宁 9050
佢 9051
▁natao 9052
▁маалыматтар 9053
КӨ 9054
就是在 9055
drastrecha 9056
▁keep 9057
▁exciting 9058
▁javascript 9059
зло 9060
▁cognosc 9061
▁aelodau 9062
ncia 9063
▁spricht 9064
▁3 9065
▁Tu 9066
▁үгүй 9067
▁реф 9068
▁Music 9069
▁давхар 9070
▁шума 9071
夫人 9072
▁растения 9073
ווייַ 9074
▁klippe 9075
тычныя 9076
ციული 9077
▁단 9078
xha 9079
▁naročil 9080
最初の 9081
▁რომელთა 9082
▁Джу 9083
tuk 9084
▁genomen 9085
ІІ 9086
▁puder 9087
CC 9088
▁qüvvələri 9089
下記 9090
▁devolv 9091
▁Rashid 9092
volution 9093
Пи 9094
ાંક 9095
▁28 9096
相信 9097
வுடன் 9098
▁డై 9099
大地 9100
▁6.3 9101
тааны 9102
zito 9103
▁Kha 9104
▁umjetnosti 9105
▁британски 9106
▁Diario 9107
▁Tot 9108
▁підстав 9109
▁дълг 9110
år 9111
лаған 9112
கல 9113
ಚಿತ್ರ 9114
▁സ്ഥല 9115
▁postelj 9116
▁parker 9117
▁पाउन 9118
▁спомена 9119
▁fundador 9120
కున్న 9121
し 9122
鈴 9123
qua 9124
▁часта 9125
賺 9126
裤 9127
▁Kontak 9128
יאַ 9129
质量 9130
▁uzskata 9131
▁національного 9132
tol 9133
▁sorumlu 9134
tööd 9135
▁கதைகள் 9136
▁постојат 9137
获得 9138
▁분명 9139
▁sonuçları 9140
▁@ 9141
▁izleme 9142
▁ორგანიზაცია 9143
▁amewa 9144
aqiiq 9145
tve 9146
▁కథలు 9147
▁Konsult 9148
▁jogadores 9149
▁పైగా 9150
▁ගන්නවා 9151
▁patogi 9152
гъ 9153
▁mode 9154
▁básico 9155
爆发 9156
မူး 9157
ánach 9158
▁pekee 9159
▁Kolor 9160
▁Klassen 9161
系列 9162
▁законодав 9163
אָפּ 9164
TT 9165
▁безбедности 9166
غوا 9167
▁berdin 9168
J 9169
▁Panta 9170
ก็สามารถ 9171
▁осам 9172
ვნი 9173
小小 9174
ljivosti 9175
wasili 9176
átka 9177
▁studiju 9178
▁ଫେରି 9179
াক 9180
▁발 9181
കാര്യ 9182
▁meldt 9183
National 9184
▁ચાલુ 9185
▁dice 9186
▁complète 9187
▁vzdeláva 9188
▁сестри 9189
lā 9190
▁pokračuj 9191
▁उससे 9192
▁άμεση 9193
▁fremover 9194
▁éco 9195
ՀԱ 9196
▁attól 9197
५६ 9198
▁kushiriki 9199
▁লীগ 9200
బాబు 9201
▁failure 9202
▁түрк 9203
clan 9204
▁Baka 9205
▁꾸 9206
കരമായ 9207
▁iniciat 9208
▁ag 9209
nai 9210
▁Pot 9211
▁MI 9212
િટી 9213
ІЯ 9214
▁wiil 9215
▁Arbeids 9216
▁story 9217
▁একই 9218
angebot 9219
台中市 9220
▁წავი 9221
▁prote 9222
▁Inner 9223
ર્ષ 9224
▁muutus 9225
స్తున్నాయి 9226
牌 9227
▁digitáln 9228
▁Vas 9229
KTI 9230
▁эсте 9231
▁20-25 9232
新 9233
තක් 9234
▁promete 9235
▁የቤተ 9236
▁دستگیر 9237
LJU 9238
▁FILM 9239
透過 9240
興奮 9241
▁diweddar 9242
濱 9243
レッスン 9244
温泉 9245
ປ່ຽນ 9246
▁conférence 9247
▁ล้านบาท 9248
▁Stáit 9249
▁Gr 9250
▁zajęć 9251
▁მოგვ 9252
▁under 9253
āt 9254
▁అధికారులు 9255
▁영업 9256
空港 9257
speicher 9258
節 9259
სხვა 9260
▁Teknisk 9261
國家 9262
top 9263
▁øyne 9264
▁karşılık 9265
ij 9266
▁લોકોને 9267
שיעור 9268
▁Wo 9269
▁борби 9270
zam 9271
▁Train 9272
spieva 9273
▁зустрічі 9274
▁ανακ 9275
▁šiek 9276
▁come 9277
▁Port 9278
▁großes 9279
▁investigador 9280
▁Сталин 9281
▁comprobar 9282
▁parinti 9283
оном 9284
ολόγιο 9285
▁Start 9286
▁odhod 9287
▁descobri 9288
▁روزها 9289
然 9290
▁الجب 9291
คลิก 9292
▁noroc 9293
^^; 9294
▁nekik 9295
让自己 9296
▁využití 9297
YER 9298
級 9299
的影響 9300
устойчив 9301
▁til 9302
▁26 9303
▁станц 9304
152 9305
sex 9306
▁бүхэн 9307
fíci 9308
களுக்கும் 9309
▁odhad 9310
▁වැඩසටහන 9311
戦争 9312
艦 9313
▁нарийн 9314
いろんな 9315
▁Trọng 9316
▁1: 9317
ተካሄደ 9318
निमित्त 9319
▁کلتور 9320
▁Labarai 9321
取得 9322
▁എഴുതി 9323
▁Swan 9324
▁అప్పుడు 9325
▁curso 9326
▁المعروف 9327
▁છેલ્લા 9328
통 9329
▁přijde 9330
▁Հո 9331
▁माजी 9332
▁କଣ 9333
▁মধ্য 9334
ello 9335
▁yrityksen 9336
▁словно 9337
▁Jerry 9338
▁delvis 9339
▁پنجم 9340
▁једини 9341
▁bot 9342
▁الدراسي 9343
2000 9344
Nar 9345
▁دومین 9346
த்தையும் 9347
▁урбан 9348
戶外 9349
LÍ 9350
ପର 9351
▁Ultima 9352
▁программе 9353
▁jobben 9354
实习 9355
▁агуу 9356
▁qartulad 9357
▁mesmas 9358
byśmy 9359
▁preoccupa 9360
▁ນຶ່ງ 9361
▁narių 9362
▁indi 9363
ËS 9364
扰 9365
▁чара 9366
▁hinzu 9367
靴 9368
タイミング 9369
▁распаўсюд 9370
▁Rus 9371
▁колледж 9372
▁travail 9373
▁kırmızı 9374
▁existe 9375
▁belgilangan 9376
▁ბათუმი 9377
▁ବିରୋଧରେ 9378
▁remercie 9379
nye 9380
▁ավտո 9381
▁Δημοκρατίας 9382
▁Hawaii 9383
▁వారిని 9384
бын 9385
dock 9386
متع 9387
▁программу 9388
cen 9389
▁სახის 9390
▁جناح 9391
▁opportunità 9392
▁počtu 9393
ចាស់ 9394
▁þína 9395
▁höjd 9396
助 9397
▁sarap 9398
นู 9399
غىنى 9400
४९ 9401
▁kansalais 9402
▁مواطن 9403
国内 9404
▁Ülke 9405
▁kucing 9406
▁రాజ్ 9407
ött 9408
新兴 9409
▁прекр 9410
▁мери 9411
▁esprime 9412
▁अन्न 9413
nner 9414
▁خانہ 9415
▁finalizar 9416
тину 9417
tega 9418
▁verklighet 9419
▁preguntar 9420
股权 9421
一定會 9422
▁rezid 9423
▁aynu 9424
贾 9425
逻辑 9426
马来西亚 9427
▁kulturelle 9428
hôtel 9429
ferie 9430
เน็ต 9431
keta 9432
▁vitamin 9433
▁cualquiera 9434
gni 9435
aplicació 9436
ುತ್ತಾನೆ 9437
▁1993 9438
▁garso 9439
ziko 9440
絶対に 9441
제도 9442
▁Webcam 9443
▁pareng 9444
▁enfoca 9445
▁) 9446
け 9447
自動車 9448
ுற 9449
▁పరిచయం 9450
▁שפי 9451
▁generación 9452
▁סופר 9453
▁глави 9454
Anh 9455
▁frö 9456
講師 9457
▁resume 9458
▁провежда 9459
ENIE 9460
staviť 9461
▁judul 9462
▁Опис 9463
▁کرام 9464
+0 9465
▁раёне 9466
▁sono 9467
▁raise 9468
▁بوي 9469
▁фасад 9470
▁iso 9471
hluta 9472
ിക്കാന 9473
أزمة 9474
hou 9475
証拠 9476
可以通过 9477
炭 9478
▁pastinya 9479
拠 9480
▁мезгил 9481
tico 9482
▁adroddiad 9483
▁Vid 9484
зважаючи 9485
jen 9486
료 9487
▁Mel 9488
ంటాయి 9489
ndry 9490
ирајте 9491
▁mental 9492
▁بلاول 9493
zz 9494
คริส 9495
▁annum 9496
原因是 9497
長時間 9498
▁ಖಾತೆ 9499
ininku 9500
▁غنی 9501
▁hervor 9502
ምርጫ 9503
ψ 9504
▁fuldt 9505
강 9506
▁боловсруулах 9507
▁Ha 9508
▁boya 9509
남 9510
тэт 9511
84 9512
관광 9513
▁kirish 9514
▁چالش 9515
把他 9516
मंड 9517
▁सरल 9518
stawić 9519
eeyaan 9520
monina 9521
ago 9522
▁Nasze 9523
պիսի 9524
▁programov 9525
生まれ 9526
▁разрешен 9527
▁бій 9528
▁computer 9529
▁kurash 9530
cího 9531
▁tarte 9532
▁لکيو 9533
लिका 9534
▁2011 9535
▁difusión 9536
cour 9537
talk 9538
▁Ogos 9539
▁Rule 9540
▁rodas 9541
▁저 9542
ñez 9543
▁suppose 9544
▁ਦੇਖ 9545
hrif 9546
▁другая 9547
有助于 9548
▁zhvilluar 9549
亦 9550
耶穌 9551
▁Angeli 9552
▁direcció 9553
动态 9554
▁यसका 9555
토 9556
軒 9557
ساس 9558
antes 9559
▁president 9560
▁Savienības 9561
hana 9562
▁волос 9563
стройств 9564
inga 9565
▁המחשב 9566
▁газов 9567
▁wol 9568
▁اخرى 9569
并未 9570
ስል 9571
akên 9572
▁túc 9573
▁같은 9574
▁රිකා 9575
每个人都 9576
▁pentsa 9577
ریس 9578
(6 9579
东北 9580
178 9581
klej 9582
▁ശിവ 9583
ГРАД 9584
▁सारी 9585
INA 9586
ਦੇਸ਼ 9587
mang 9588
進而 9589
ાનો 9590
▁ਮਹਿਲਾ 9591
晚 9592
័យ 9593
ulong 9594
▁pianist 9595
പിന്ന 9596
KO 9597
пустили 9598
jana 9599
لند 9600
分け 9601
▁pegar 9602
MAN 9603
▁generate 9604
というか 9605
เข้าถึง 9606
高 9607
果 9608
▁பொருள் 9609
fase 9610
▁Ελληνική 9611
▁cura 9612
同比增长 9613
▁населени 9614
katerimi 9615
kse 9616
အသင်း 9617
▁alıp 9618
▁Akureyri 9619
▁Pogledajte 9620
▁Škoda 9621
▁dopravy 9622
mnazi 9623
▁ослободи 9624
▁темы 9625
▁rock 9626
bayang 9627
▁בשנה 9628
▁izlet 9629
▁кстати 9630
▁Filipino 9631
ундагы 9632
▁chapter 9633
▁դատարանի 9634
▁4) 9635
▁görüşüb 9636
하며 9637
▁Kogu 9638
íochtaí 9639
▁gaz 9640
▁szereg 9641
1% 9642
▁იქნებ 9643
▁زمن 9644
▁Муж 9645
ելուց 9646
▁ravnatelj 9647
▁المحلي 9648
ოვი 9649
টিভি 9650
នារី 9651
▁Afin 9652
▁iOS 9653
▁મૂક 9654
▁Sor 9655
תיאור 9656
▁слуг 9657
▁datotek 9658
▁መረጃዎች 9659
143 9660
▁páxinas 9661
▁가장 9662
höf 9663
不清 9664
▁ram 9665
▁мої 9666
▁miniatur 9667
▁Meil 9668
▁μονο 9669
▁Qanunun 9670
מרחב 9671
▁4. 9672
ложено 9673
იდა 9674
▁빼 9675
IKAN 9676
▁duchov 9677
怀孕 9678
面白い 9679
ydd 9680
峰会 9681
арство 9682
细胞 9683
トレーニング 9684
ազգ 9685
▁ਅਨ 9686
રાષ્ટ્ર 9687
▁Dag 9688
ierung 9689
▁ऑस्ट्रेलिया 9690
▁Луганськ 9691
▁Gizarte 9692
▁Dewlet 9693
▁ভগ 9694
ibilbide 9695
ei 9696
▁၂၀၀ 9697
▁اللعبة 9698
ysgrif 9699
牛 9700
▁nasihat 9701
▁instrument 9702
▁Minh 9703
▁spe 9704
▁lastnosti 9705
▁gumb 9706
বীর 9707
прозрач 9708
ванняў 9709
▁Kanunu 9710
▁औषधि 9711
的话 9712
ဖော်ပြ 9713
▁noaptea 9714
▁југ 9715
kulttuuri 9716
▁réuni 9717
▁rafin 9718
▁Slavon 9719
▁ölkələrdə 9720
真心 9721
قون 9722
▁sauce 9723
rita 9724
203 9725
થે 9726
▁келтір 9727
ejoj 9728
ុប 9729
०९ 9730
โดยไม่ 9731
ීමේ 9732
▁Minder 9733
довольн 9734
▁osad 9735
▁Shqiptare 9736
lektor 9737
▁2011. 9738
శారు 9739
▁weekend 9740
лц 9741
▁شادي 9742
▁( 9743
l 9744
▁We 9745
各方面 9746
▁tranquilo 9747
▁potpis 9748
เปล่า 9749
ONDO 9750
orienta 9751
アドバイス 9752
ദൃശ്യ 9753
▁Vždy 9754
UN 9755
คุ้มค่า 9756
▁بېرته 9757
▁مشترك 9758
▁önüne 9759
還有 9760
▁לקנות 9761
▁الكمبيوتر 9762
ডা 9763
▁number 9764
рый 9765
▁plast 9766
▁jūt 9767
Гол 9768
▁študentov 9769
▁بدین 9770
▁entra 9771
현 9772
ነገረ 9773
हरे 9774
可 9775
einket 9776
▁kategoriji 9777
▁kjenne 9778
全面 9779
դու 9780
קסי 9781
ефективни 9782
▁kiribû 9783
իլի 9784
▁professora 9785
▁Reiki 9786
ebilmek 9787
מיקום 9788
▁odpowiednie 9789
ಟೋ 9790
▁membuatnya 9791
▁nafta 9792
▁Einen 9793
▁tulajdonos 9794
▁Llu 9795
▁нормы 9796
いて 9797
Não 9798
牽 9799
оров 9800
ຄອບຄົວ 9801
มูลนิธิ 9802
▁aģentūra 9803
alam 9804
▁Gửi 9805
▁අනෙක් 9806
▁dibangun 9807
▁found 9808
▁navegant 9809
▁забезпечує 9810
ുവാൻ 9811
▁Kollegen 9812
▁τρί 9813
val 9814
▁foram 9815
roz 9816
▁hổ 9817
ガン 9818
▁јавног 9819
▁ходи 9820
▁Campan 9821
Бал 9822
▁CH 9823
fc 9824
люд 9825
bransjen 9826
套 9827
▁politică 9828
148 9829
▁ಅಪ್ಪ 9830
cchi 9831
shirye 9832
▁värd 9833
▁Info 9834
mulo 9835
▁πιά 9836
▁lassan 9837
web 9838
መንግስት 9839
▁Estate 9840
▁fonduri 9841
▁інвест 9842
ાર્થ 9843
보증 9844
▁claims 9845
▁завршен 9846
YAT 9847
Все 9848
▁nêu 9849
▁կանգ 9850
Di 9851
▁254 9852
▁preveri 9853
▁ragihandin 9854
ikan 9855
▁крови 9856
なかった 9857
рахування 9858
中国特色社会主义 9859
187 9860
vrši 9861
旁边 9862
償 9863
▁Wrocław 9864
▁hulgas 9865
打了 9866
▁kedvezmény 9867
▁scríobh 9868
▁upp 9869
远 9870
▁текстови 9871
lisse 9872
▁त्यानंतर 9873
▁çalışması 9874
▁menatap 9875
▁Kam 9876
toimittaja 9877
相同的 9878
ცის 9879
▁valokuva 9880
ink 9881
▁요소 9882
νές 9883
▁Stay 9884
번째 9885
висока 9886
oài 9887
сіў 9888
▁værd 9889
ნდი 9890
olog 9891
▁راهکار 9892
需 9893
▁kādas 9894
▁חובה 9895
▁færre 9896
▁88 9897
郑州 9898
▁korras 9899
▁udělal 9900
व्हा 9901
вођење 9902
発行 9903
ពីរ 9904
prowadzi 9905
材料 9906
▁вълн 9907
▁neuz 9908
▁zaključi 9909
कर्त 9910
▁gabinet 9911
▁assistenza 9912
的意见 9913
▁Tare 9914
權 9915
了几 9916
▁ஆப் 9917
gen 9918
▁obiectiv 9919
▁zakaz 9920
تني 9921
▁موڪلي 9922
▁Theodor 9923
▁Fabrik 9924
evi 9925
Ազատ 9926
▁Schweizer 9927
ићи 9928
产业 9929
məyin 9930
承諾 9931
寻求 9932
牠 9933
そもそも 9934
▁Blade 9935
▁duzue 9936
▁abgeschlossen 9937
几 9938
▁Erlebnis 9939
bay 9940
▁díreach 9941
▁seminggu 9942
yo 9943
▁Gran 9944
fahrer 9945
▁Chiến 9946
mā 9947
សុទ្ធ 9948
▁протести 9949
dai 9950
▁mélange 9951
▁يعيش 9952
▁Concord 9953
原油 9954
େନ୍ଦ୍ର 9955
කුරු 9956
▁sir 9957
riz 9958
үлдү 9959
5-1 9960
▁കരുതി 9961
▁बनाएको 9962
▁United 9963
fehér 9964
риан 9965
▁අවි 9966
▁kolejnych 9967
▁døds 9968
ລາດ 9969
▁an 9970
uje 9971
▁Jadi 9972
язы 9973
▁awali 9974
世界上最 9975
ғанда 9976
▁لکڻ 9977
▁7- 9978
▁Rodin 9979
▁hazard 9980
▁SEP 9981
▁nantinya 9982
හන 9983
1000 9984
య్యా 9985
▁রান 9986
▁TR 9987
▁Nge 9988
ologia 9989
▁jogar 9990
vloei 9991
▁rescat 9992
▁оқиға 9993
سكو 9994
▁aktuali 9995
심 9996
ztea 9997
▁contidos 9998
▁ulykke 9999
▁pé 10000
▁ସମ୍ପର୍କ 10001
ប្រជុំ 10002
銘 10003
スキル 10004
幸运 10005
▁долги 10006
ปรึกษา 10007
ók 10008
▁Ég 10009
▁fr 10010
▁gwrth 10011
BOT 10012
פייה 10013
▁Te 10014
원은 10015
かかって 10016
▁Komfort 10017
▁машине 10018
HIM 10019
▁өч 10020
埃及 10021
▁sälja 10022
ນຶ່ງ 10023
კული 10024
萬人 10025
▁Fare 10026
ingresso 10027
ಕಾಯಿ 10028
▁많은 10029
▁Karya 10030
軍 10031
▁støv 10032
lan 10033
▁Élet 10034
만을 10035
න්නෙ 10036
ріл 10037
▁mand 10038
guera 10039
▁төменде 10040
▁gestire 10041
▁human 10042
▁nascut 10043
յր 10044
רוד 10045
承認 10046
book 10047
ଗେ 10048
▁బాల 10049
škim 10050
当然 10051
▁දිවි 10052
നാട് 10053
▁dilê 10054
标准 10055
հանգստ 10056
▁خلالها 10057
▁supliment 10058
▁kölcsön 10059
▁blog 10060
▁വെടി 10061
▁jednání 10062
▁këngëtar 10063
임 10064
綿 10065
▁وحدة 10066
コーヒー 10067
kläd 10068
だけ 10069
ዴሞክራሲ 10070
▁Filozof 10071
▁Kodėl 10072
改善 10073
▁invest 10074
▁tăi 10075
▁commencé 10076
▁cieľ 10077
obligatori 10078
▁explica 10079
▁Oriental 10080
▁Pengarah 10081
▁روايت 10082
čaka 10083
▁במה 10084
▁nas 10085
▁දරුව 10086
dri 10087
коруп 10088
▁Норма 10089
▁Celo 10090
ለን፡፡ 10091
ზღ 10092
▁77 10093
▁навукова 10094
▁Флор 10095
ller 10096
▁θέλω 10097
ád 10098
मैन 10099
чнага 10100
ไม่ควร 10101
▁severe 10102
дзю 10103
▁dochter 10104
వచ్చ 10105
punkti 10106
▁Ayo 10107
▁baisse 10108
ဇီ 10109
▁Förder 10110
áků 10111
anka 10112
▁irgi 10113
ความจริง 10114
▁textura 10115
▁vyhr 10116
جنس 10117
▁mantenere 10118
▁Mise 10119
▁FIL 10120
Su 10121
jskem 10122
prac 10123
▁spesialis 10124
▁индустрия 10125
परी 10126
iz 10127
brä 10128
ประเด็น 10129
▁Təbii 10130
▁1863 10131
▁துணை 10132
▁Văn 10133
▁бичгийн 10134
▁Benedikt 10135
ტარი 10136
▁מבחינת 10137
▁ئۆس 10138
▁kuula 10139
rou 10140
▁кездесу 10141
larımıza 10142
▁muffin 10143
ist 10144
臨床 10145
▁zählt 10146
▁turės 10147
解决 10148
▁syke 10149
▁javítás 10150
івський 10151
ยาน 10152
sine 10153
简称 10154
▁usuário 10155
여성 10156
▁чиглэл 10157
آپ 10158
EJA 10159
▁bancar 10160
之 10161
eller 10162
വിനെ 10163
▁préparer 10164
▁tell 10165
▁älska 10166
▁basse 10167
書いた 10168
▁sæson 10169
ohjelman 10170
▁هى 10171
hlav 10172
▁цэнтра 10173
▁gestionar 10174
▁rem 10175
▁siento 10176
valvonta 10177
▁Big 10178
ดูรายละเอียด 10179
USTA 10180
组 10181
▁దూరం 10182
▁намаз 10183
▁vatandaş 10184
cev 10185
▁onlardan 10186
とりあえず 10187
la 10188
anga 10189
ders 10190
▁મુદ્દ 10191
▁hominem 10192
▁있던 10193
▁tamaşa 10194
▁ਛੇ 10195
▁módulo 10196
▁ценности 10197
правда 10198
粉 10199
▁आँखा 10200
▁сиромаш 10201
▁largest 10202
리스트 10203
▁സത്യം 10204
69 10205
▁отпуска 10206
▁Targ 10207
▁lawr 10208
▁ұш 10209
▁XX 10210
▁جنگی 10211
▁adopta 10212
▁BO 10213
▁mooiste 10214
ຂອງການ 10215
ესა 10216
▁Məsələn 10217
ניע 10218
▁Casino 10219
297 10220
▁나서 10221
▁मुह 10222
▁Shiva 10223
▁жетки 10224
치고 10225
▁వెళ్ళి 10226
ותם 10227
שמע 10228
ديس 10229
षि 10230
kta 10231
条款 10232
▁ekkor 10233
▁magnam 10234
掉 10235
▁henki 10236
▁સ્ત્રી 10237
▁bh 10238
53 10239
▁probleemi 10240
▁التركي 10241
ttomasti 10242
▁Idő 10243
없 10244
ങ്ങളിലെ 10245
leme 10246
负担 10247
hờ 10248
▁tombe 10249
邱 10250
▁Page 10251
陀 10252
除此之外 10253
▁শিক্ষার্থী 10254
သုိ႔ 10255
✅ 10256
▁بىلدۈر 10257
▁вежба 10258
ស្ស 10259
▁Asia 10260
▁ايندڙ 10261
▁그리고 10262
▁φάση 10263
онт 10264
▁Now 10265
▁качан 10266
▁1888 10267
▁tuttavia 10268
▁olan 10269
▁Stadt 10270
▁ajatus 10271
)。 10272
▁صفحة 10273
부터 10274
▁miliardi 10275
▁hag 10276
▁vrijednost 10277
▁gwamnatin 10278
▁Anne 10279
熟悉的 10280
▁අහන්න 10281
▁granica 10282
▁Центра 10283
▁temporar 10284
▁blat 10285
ጠቁ 10286
రేషన్ 10287
▁првог 10288
▁బ్రహ్మ 10289
▁Business 10290
bool 10291
րատ 10292
▁વસ 10293
志 10294
አቀ 10295
พุ 10296
▁www 10297
▁kilo 10298
▁teljesít 10299
▁Трен 10300
▁synth 10301
▁Medica 10302
▁pelakon 10303
ผู้ป่วย 10304
▁මැතිවරණය 10305
RO 10306
▁రకాల 10307
▁apua 10308
Un 10309
▁maxi 10310
▁смърт 10311
şîr 10312
ຍາກ 10313
儿 10314
Player 10315
戰略 10316
嘆 10317
worm 10318
弊 10319
תוצאה 10320
പ്രസംഗ 10321
▁ri 10322
ość 10323
▁Muuqaal 10324
ax 10325
▁Infrastruktur 10326
▁piisavalt 10327
升 10328
▁pertanian 10329
▁చేస్తుంది 10330
rika 10331
▁century 10332
▁turpmāk 10333
ನಾಥ್ 10334
▁فندق 10335
ירוש 10336
▁sfaturi 10337
kü 10338
ಾಯಿತು 10339
▁כעת 10340
sel 10341
▁आफूले 10342
Тур 10343
▁Atlantic 10344
▁madri 10345
▁तदा 10346
იზაცია 10347
▁vergeet 10348
▁danışma 10349
▁سۈرەت 10350
▁movie 10351
furahi 10352
នុ 10353
▁bele 10354
▁работите 10355
▁екологічн 10356
алж 10357
▁Belgia 10358
bergen 10359
▁кыймыл 10360
▁Nu 10361
▁Paulo 10362
的理念 10363
▁redz 10364
rlo 10365
elės 10366
▁хуульд 10367
▁preparare 10368
евдин 10369
▁نڪري 10370
տրա 10371
tinę 10372
▁metai 10373
▁Kad 10374
alaikum 10375
▁сенс 10376
▁mobile 10377
▁passeio 10378
桜 10379
ฝรั่งเศส 10380
che 10381
特別 10382
▁społeczeństw 10383
▁Navoiy 10384
▁đuổi 10385
▁fericire 10386
▁Saad 10387
▁सिम 10388
▁Band 10389
▁výstup 10390
أفلام 10391
▁الطبيعية 10392
▁Србима 10393
සක 10394
▁hominis 10395
▁al 10396
▁Facebook 10397
elu 10398
rätten 10399
værdig 10400
▁العمال 10401
▁שהיו 10402
▁маска 10403
zuka 10404
ىرىپ 10405
▁drone 10406
▁zuzendu 10407
▁producenta 10408
▁Cap 10409
instant 10410
▁prometa 10411
្ត 10412
очный 10413
ාගාර 10414
gul 10415
▁hory 10416
▁الزمن 10417
ém 10418
▁Jamie 10419
лія 10420
rādi 10421
▁econòmica 10422
▁klíč 10423
سین 10424
mut 10425
の方々 10426
▁nişan 10427
ിക്കാം 10428
▁Sitä 10429
最多的 10430
lepingu 10431
▁Hem 10432
▁običaj 10433
జూ 10434
ଖଣ୍ଡ 10435
ՆԱ 10436
▁OK 10437
▁جستجوی 10438
Pub 10439
▁बाग 10440
оўнік 10441
▁informa 10442
去找 10443
▁Unterricht 10444
šajte 10445
▁Shah 10446
喘 10447
妆 10448
っていました 10449
τίθεται 10450
▁pap 10451
家 10452
▁ahamiyat 10453
▁hodiaŭ 10454
キ 10455
▁részlet 10456
▁pasta 10457
pišite 10458
親切 10459
ຊົມ 10460
人才 10461
▁ΜΑΣ 10462
难度 10463
▁szülő 10464
▁어 10465
▁opravil 10466
▁Също 10467
▁internetowy 10468
▁voeren 10469
▁الكبيرة 10470
لىنىدۇ 10471
pi 10472
▁sap 10473
ленген 10474
gaan 10475
▁fidem 10476
pada 10477
zingen 10478
斗争 10479
rz 10480
ਦਿ 10481
യാണെന്ന് 10482
gus 10483
▁uscat 10484
prawy 10485
▁1800- 10486
▁mendje 10487
ālis 10488
баяр 10489
GOR 10490
לאנג 10491
行政 10492
▁érkezett 10493
▁шарты 10494
greina 10495
რვა 10496
Ras 10497
▁aurreko 10498
비가 10499
さん 10500
ਛਾ 10501
▁ਕੇਸ 10502
▁respirator 10503
▁Ngayon 10504
▁dosti 10505
▁OEM 10506
ទី២ 10507
▁включает 10508
▁좋은 10509
rinish 10510
▁چای 10511
▁माणसा 10512
รวบรวม 10513
▁heutigen 10514
则 10515
cha 10516
发生 10517
▁izstāde 10518
▁английско 10519
betingsten 10520
▁verklaar 10521
▁natura 10522
▁Главная 10523
ເຈັບ 10524
▁Hol 10525
▁охраны 10526
▁स्वच्छ 10527
ləyib 10528
▁Bollywood 10529
gyldig 10530
Dienstleistungen 10531
ひと 10532
▁Itä 10533
▁xərclə 10534
▁resto 10535
manî 10536
დონ 10537
▁body 10538
▁soutěže 10539
اعتماد 10540
になって 10541
▁director 10542
際に 10543
▁заклик 10544
ilebilir 10545
▁Opfer 10546
idh 10547
AUD 10548
▁Forschung 10549
▁toimitus 10550
▁AN 10551
▁добавил 10552
法案 10553
ΟΥΝ 10554
▁ayaw 10555
ఠ 10556
▁27 10557
更新 10558
▁आयात 10559
▁yet 10560
▁explicit 10561
落后 10562
▁haraka 10563
догу 10564
袁 10565
طعام 10566
▁private 10567
冯 10568
resor 10569
投诉 10570
▁групу 10571
整治 10572
▁גלו 10573
▁Parabéns 10574
▁company 10575
▁wir 10576
▁aadan 10577
sik 10578
હે 10579
▁organisaatio 10580
ונס 10581
▁කිහිප 10582
▁drauf 10583
▁शरद 10584
上周 10585
θυμ 10586
lles 10587
▁مجاني 10588
▁enzim 10589
▁ambaŭ 10590
▁змогу 10591
بولي 10592
▁থাকা 10593
▁الكرة 10594
▁Aurora 10595
ինք 10596
▁घुम 10597
ឧ 10598
▁moral 10599
Gənc 10600
▁Əf 10601
aci 10602
Труд 10603
▁Presentació 10604
stimul 10605
▁obuv 10606
▁grote 10607
▁beállítás 10608
▁монах 10609
▁rodičov 10610
▁ciwan 10611
▁Photograph 10612
▁سورة 10613
dienu 10614
▁կհա 10615
חיבור 10616
▁провеждане 10617
▁Entre 10618
բեկ 10619
ja 10620
可以 10621
遊 10622
▁еко 10623
ιχν 10624
▁KARA 10625
ለሰ 10626
▁Прем 10627
▁класі 10628
225 10629
▁կերպ 10630
வேளை 10631
कुश 10632
▁liens 10633
▁بالی 10634
▁specifico 10635
趋 10636
▁Long 10637
僵 10638
lícula 10639
斌 10640
▁Predsjednik 10641
▁Själv 10642
ús 10643
▁dag 10644
▁keindahan 10645
▁bildirilir 10646
루 10647
▁남북 10648
스럽 10649
▁ћете 10650
▁hóf 10651
varsel 10652
▁shtuar 10653
▁дисциплін 10654
▁Иска 10655
janski 10656
ేషన్ 10657
んだ 10658
▁վկայ 10659
▁zeuden 10660
▁samaan 10661
▁знања 10662
▁Spolu 10663
lashtirilgan 10664
piemēro 10665
вство 10666
ARA 10667
▁kompil 10668
▁Rust 10669
מקום 10670
▁Phase 10671
multi 10672
▁ilgai 10673
参加了 10674
haq 10675
▁konteks 10676
▁കോള 10677
inne 10678
helyettes 10679
avo 10680
をはじめ 10681
siynau 10682
7% 10683
▁mantan 10684
▁verdura 10685
▁คุณสามารถ 10686
▁Varga 10687
▁მახ 10688
jot 10689
▁krigen 10690
▁saakka 10691
▁Μην 10692
▁رہے۔ 10693
folia 10694
ריע 10695
しますが 10696
nes 10697
▁Kir 10698
▁आउट 10699
▁later 10700
▁ಪತ್ರಿಕೆ 10701
vala 10702
▁omaan 10703
▁raudon 10704
▁Rock 10705
▁došao 10706
▁ATV 10707
资讯 10708
เทียม 10709
醇 10710
▁Tampereen 10711
rä 10712
sted 10713
mari 10714
必须 10715
▁penumpang 10716
bahagian 10717
α 10718
信貸 10719
▁jumatate 10720
▁odluke 10721
▁այդպես 10722
▁γκολ 10723
▁Eagle 10724
ອ່ານ 10725
▁поняла 10726
▁اليڪشن 10727
破 10728
▁majorité 10729
られる 10730
▁관심을 10731
ইস 10732
▁الاقتصادي 10733
▁القضاء 10734
▁joukko 10735
▁информацията 10736
▁내용은 10737
▁north 10738
▁uğurla 10739
▁family 10740
تكم 10741
▁kokeilla 10742
▁keçirdiyi 10743
▁Ver 10744
▁ارض 10745
▁CON 10746
حسين 10747
жень 10748
▁bottle 10749
▁szaf 10750
aika 10751
▁გუნდი 10752
▁რეჟისორი 10753
資訊 10754
▁باران 10755
▁iddynt 10756
▁rent 10757
▁Дараа 10758
▁втория 10759
қай 10760
▁دوو 10761
吉 10762
▁seçenekleri 10763
dön 10764
▁қыс 10765
▁tho 10766
▁Путін 10767
۳۱ 10768
▁Baza 10769
іздің 10770
ਇਰ 10771
▁Ofic 10772
টায় 10773
▁montri 10774
縫 10775
aktiviteter 10776
teri 10777
jm 10778
▁Ef 10779
▁közönség 10780
밍 10781
šené 10782
▁δίπλα 10783
▁பயணம் 10784
▁Defensa 10785
▁Rwanda 10786
björn 10787
▁ಹಿಂದಿನ 10788
het 10789
▁خسته 10790
▁executar 10791
▁þekki 10792
насил 10793
머니 10794
beli 10795
▁réteg 10796
▁ገብረ 10797
▁ապրել 10798
治 10799
dığında 10800
ണോ 10801
▁Viagra 10802
ဖတ် 10803
ကြန္ 10804
费 10805
눈 10806
Download 10807
▁Kriteri 10808
▁Leid 10809
▁STAT 10810
aalselt 10811
▁[...] 10812
its 10813
ような 10814
hlásil 10815
▁ප්ර 10816
▁모르 10817
бърз 10818
らなかった 10819
▁ኢትዮጵያን 10820
▁julge 10821
▁eraldi 10822
▁પદ 10823
ific 10824
▁trace 10825
▁begyndte 10826
▁December 10827
▁хэрэглээ 10828
tima 10829
대의 10830
▁sosem 10831
નાથ 10832
▁Ind 10833
▁inteleg 10834
なんと 10835
▁Liik 10836
▁Barber 10837
▁prazni 10838
ക്കാനുള്ള 10839
▁невин 10840
學習 10841
▁земља 10842
▁14% 10843
哩 10844
軟件 10845
▁Оқушылар 10846
▁Tun 10847
SC 10848
▁Tvorba 10849
ផ្ញើ 10850
▁որոշակի 10851
价 10852
▁uzmanību 10853
▁Атанас 10854
▁übrigens 10855
職 10856
▁kakšne 10857
▁მდგომარეობა 10858
flet 10859
▁боловч 10860
▁del 10861
더 10862
▁בפייסבוק 10863
UR 10864
様子 10865
తిని 10866
ιακού 10867
▁hol 10868
ណ្ឌ 10869
▁velko 10870
傳 10871
usapan 10872
▁Nika 10873
▁жолдо 10874
követ 10875
lea 10876
▁domenii 10877
abi 10878
perioden 10879
▁पॅ 10880
▁progressiv 10881
טת 10882
▁Ստ 10883
стям 10884
▁cum 10885
期待 10886
▁accipi 10887
▁bepaal 10888
Prim 10889
አሜሪካ 10890
▁צעד 10891
▁bence 10892
▁Versi 10893
ਪਤੀ 10894
ũng 10895
▁penis 10896
▁ligga 10897
ndra 10898
ரெ 10899
▁Volta 10900
loft 10901
▁játékok 10902
yam 10903
▁دانه 10904
▁játszott 10905
です 10906
palveluiden 10907
ంగి 10908
巾 10909
▁студэнт 10910
採取 10911
診断 10912
เนียน 10913
tang 10914
▁dotyczących 10915
όνων 10916
▁gyventi 10917
▁ਪਹਿਲੀ 10918
▁Wake 10919
▁pikkus 10920
▁sprint 10921
▁cerebro 10922
▁incrementa 10923
▁Installation 10924
▁Τσίπρας 10925
▁ugyanaz 10926
ned 10927
ويض 10928
Ni 10929
▁desperat 10930
▁Ами 10931
▁qeveria 10932
▁Empire 10933
ล่าง 10934
▁power 10935
tettävä 10936
▁bivši 10937
▁персональн 10938
Gro 10939
▁mõista 10940
석 10941
تغي 10942
▁దర్శక 10943
▁processo 10944
▁mikill 10945
!:) 10946
77 10947
▁mbajt 10948
▁cica 10949
▁muude 10950
▁konkursa 10951
▁штук 10952
sitter 10953
kelet 10954
▁особам 10955
▁نوی 10956
▁විශේෂයෙන් 10957
▁escolares 10958
W 10959
:「 10960
7.3 10961
▁интересу 10962
ໃນວັນທີ 10963
▁prioridade 10964
timen 10965
▁voitto 10966
ผิวหนัง 10967
হত 10968
▁Мени 10969
▁въведе 10970
čiui 10971
.11. 10972
สังเกต 10973
▁estabelece 10974
▁Perubahan 10975
▁Слободан 10976
ο 10977
▁Cay 10978
▁итд 10979
ויס 10980
▁krant 10981
银行 10982
▁cieszy 10983
iseanna 10984
▁היד 10985
▁interior 10986
ൻഡ് 10987
søgt 10988
▁Pride 10989
▁ресторант 10990
dien 10991
▁لكنه 10992
thola 10993
ladda 10994
אפט 10995
▁Сапар 10996
▁Իրանի 10997
▁төс 10998
▁absolut 10999
▁Віктар 11000
▁tretje 11001
перс 11002
▁toirt 11003
ЕКС 11004
▁maray 11005
オ 11006
▁regala 11007
များအတွက် 11008
ming 11009
ห่าง 11010
▁შენს 11011
▁energie 11012
explica 11013
МТ 11014
fil 11015
▁фестиваль 11016
▁гражданско 11017
dy 11018
ఫర్ 11019
▁sepatu 11020
沾 11021
십시오 11022
▁generator 11023
▁higit 11024
実践 11025
▁priemonė 11026
樂趣 11027
വിരുദ്ധ 11028
uhan 11029
ห่วง 11030
▁indica 11031
▁освободи 11032
kêş 11033
▁τ 11034
друго 11035
働く 11036
השקעות 11037
▁Pe 11038
边 11039
▁seleção 11040
▁남 11041
iyeke 11042
qey 11043
▁povestea 11044
▁bezeichnet 11045
stofa 11046
ЛЕК 11047
▁recovery 11048
▁בחיי 11049
▁ቅር 11050
▁superior 11051
ऐ 11052
ník 11053
▁употребу 11054
прием 11055
ar 11056
▁Ku 11057
▁ରିପୋର୍ଟ 11058
▁does 11059
sträck 11060
▁sparen 11061
▁noktada 11062
▁Valenciana 11063
66 11064
odpoved 11065
感觉到 11066
▁karali 11067
building 11068
▁НАС 11069
▁prietenii 11070
ਰਾਜ 11071
▁España 11072
保有 11073
מול 11074
AT 11075
▁жетекчиси 11076
▁szépség 11077
▁nin 11078
▁കാറ 11079
▁CUP 11080
▁klassiske 11081
san 11082
▁tengan 11083
ροι 11084
pha 11085
šak 11086
ሕይወ 11087
▁ਕਿਸਾਨ 11088
亨 11089
mong 11090
咖 11091
▁वास्तव 11092
▁DU 11093
▁tru 11094
▁아이폰 11095
▁дәрігер 11096
cción 11097
▁მთავრობა 11098
▁vorbi 11099
▁cestou 11100
ang 11101
▁criterios 11102
▁situazioni 11103
ជាប់ 11104
სპექტ 11105
president 11106
▁Вел 11107
નીય 11108
røy 11109
▁Enrique 11110
▁పుస్తకం 11111
▁Celebra 11112
▁герман 11113
▁مزا 11114
▁पुगे 11115
▁Základní 11116
▁sprake 11117
▁hænge 11118
▁సాయి 11119
▁kurva 11120
▁James 11121
▁ലാല 11122
なんで 11123
სტო 11124
好評 11125
호텔 11126
avaldus 11127
▁minutes 11128
▁formularz 11129
▁Sebe 11130
▁түсті 11131
武 11132
给自己 11133
▁viděl 11134
▁postupne 11135
მწვანე 11136
▁দিনে 11137
หว 11138
姐妹 11139
お仕事 11140
▁prøv 11141
járól 11142
资源 11143
stöðum 11144
新鲜 11145
ителем 11146
▁Minor 11147
▁пацієнт 11148
欣赏 11149
ယောက် 11150
关闭 11151
▁Akademiyası 11152
札 11153
szy 11154
させて頂きます 11155
ประทับใจ 11156
▁Sve 11157
▁ਜਿਨ੍ਹਾਂ 11158
▁remunera 11159
▁신뢰 11160
▁pemenang 11161
▁игровых 11162
▁رویکرد 11163
▁gjennomført 11164
▁असतील 11165
▁vašega 11166
雙 11167
▁virðist 11168
▁البيئة 11169
្រា 11170
▁dig 11171
▁skirtas 11172
တည်း 11173
▁recepta 11174
▁sausio 11175
ining 11176
假 11177
▁sykehus 11178
่อง 11179
psat 11180
▁nádob 11181
tec 11182
▁skaidro 11183
的知识 11184
▁gule 11185
▁сабак 11186
سوق 11187
▁عده 11188
edi 11189
以下是 11190
▁gummi 11191
▁web 11192
ństwa 11193
▁berjocht 11194
▁slippe 11195
vuuden 11196
ရယူ 11197
▁Elle 11198
▁Модел 11199
02. 11200
੍ਹਾ 11201
▁syytä 11202
▁312 11203
ирања 11204
▁Gadis 11205
▁blade 11206
▁shaxs 11207
▁onunla 11208
भक्त 11209
前から 11210
▁вважають 11211
▁férfiak 11212
丑 11213
ット 11214
赌 11215
翁 11216
肠 11217
トン 11218
破壞 11219
▁ಪಂದ್ಯ 11220
崛起 11221
▁sosok 11222
▁.. 11223
YA 11224
ディング 11225
迪士尼 11226
πρόεδρο 11227
สํารวจ 11228
▁Szövetség 11229
▁măsură 11230
▁Jijini 11231
▁különbség 11232
▁agertzen 11233
FA 11234
avi 11235
▁المؤسسة 11236
▁Polaków 11237
▁(1999) 11238
겠지만 11239
▁Oracle 11240
▁הצליח 11241
▁пратеници 11242
Mont 11243
▁предпоч 11244
▁Свобода 11245
▁делом 11246
ivi 11247
▁règlement 11248
。“ 11249
ുകളെ 11250
坐 11251
▁localizada 11252
lg 11253
▁Yemek 11254
▁филмови 11255
IR 11256
స్తాయి 11257
▁खरं 11258
141 11259
▁åkte 11260
▁маск 11261
▁прэм 11262
idas 11263
ፊል 11264
▁Mária 11265
▁நடு 11266
မန် 11267
▁digna 11268
▁מוצא 11269
▁Daarna 11270
ИЙГ 11271
▁usato 11272
▁Variante 11273
▁උදා 11274
▁tlači 11275
▁berja 11276
ຫມາກ 11277
▁exp 11278
▁വിശേഷ 11279
▁войска 11280
▁w 11281
▁solltest 11282
偽 11283
游泳 11284
stemming 11285
يمان 11286
ပံ 11287
▁Еуропа 11288
Richtlinie 11289
▁befinner 11290
裝 11291
lut 11292
▁דארף 11293
fjarðar 11294
▁الموافق 11295
λμ 11296
▁பயன் 11297
เซล 11298
▁spasi 11299
▁umiestnen 11300
▁hatari 11301
▁Europe 11302
▁jepun 11303
masse 11304
締 11305
тельности 11306
gem 11307
▁ánimo 11308
▁ASP 11309
háló 11310
▁ומא 11311
▁barang 11312
▁نفسك 11313
षु 11314
▁независност 11315
ι 11316
มม 11317
▁rolę 11318
▁новог 11319
▁접수 11320
衡 11321
▁valorar 11322
zd 11323
fariki 11324
▁papa 11325
▁ჩარ 11326
▁anpassa 11327
૧૭ 11328
▁obstoj 11329
▁екз 11330
ઇટ 11331
架 11332
▁brann 11333
AAR 11334
很可能 11335
น้ําตาล 11336
cie 11337
▁tietty 11338
Тоо 11339
▁bunch 11340
▁$5 11341
▁мільйон 11342
无人机 11343
龙 11344
弯 11345
böl 11346
彌 11347
不思議 11348
呂 11349
បញ្ជា 11350
▁ದೆಹಲಿ 11351
▁hochwertige 11352
▁Търново 11353
▁kijiji 11354
▁Website 11355
ბერძნ 11356
Оюун 11357
▁autonomia 11358
頂く 11359
▁departement 11360
▁Bremen 11361
öiden 11362
帝国 11363
증권 11364
▁μπορώ 11365
▁főleg 11366
▁darbā 11367
▁کچه 11368
▁Bau 11369
▁naming 11370
▁mortem 11371
ציג 11372
BLA 11373
នាម 11374
▁Later 11375
કારી 11376
▁위한 11377
▁цэнтры 11378
lur 11379
▁tilfreds 11380
▁educatiu 11381
ряжен 11382
▁oculta 11383
なく 11384
▁espazos 11385
▁ورزی 11386
ючі 11387
چىلار 11388
▁vinger 11389
▁sco 11390
手机 11391
一下子 11392
opplevelse 11393
TER 11394
Union 11395
▁Пријав 11396
▁rukou 11397
شناسی 11398
▁פלי 11399
ところに 11400
▁прогноза 11401
▁හීන 11402
チ 11403
▁causam 11404
סיכוי 11405
▁Fot 11406
▁dhexe 11407
手里 11408
▁suspek 11409
現状 11410
▁facture 11411
bistan 11412
ົ້າ 11413
ພຽງແຕ່ 11414
▁тоглолт 11415
▁rettigheder 11416
▁빠르게 11417
▁pouvons 11418
သြယ္ 11419
▁quali 11420
▁cztery 11421
部门 11422
mberg 11423
▁гурав 11424
ներս 11425
org 11426
▁принципа 11427
97 11428
সংযোগ 11429
▁کښې 11430
၁၅ 11431
wing 11432
▁destacado 11433
ანდა 11434
▁monopol 11435
▁tiksli 11436
sluiting 11437
▁palikt 11438
հետ 11439
stenen 11440
dhaaf 11441
nte 11442
电影 11443
bháil 11444
▁Швед 11445
fn 11446
▁работна 11447
▁artikkeli 11448
miehen 11449
▁अंग्रेजी 11450
▁minim 11451
それら 11452
ysis 11453
experiència 11454
헤 11455
ceiro 11456
▁George 11457
▁рр 11458
ვნე 11459
▁liber 11460
▁مظاهر 11461
这种情况 11462
tokset 11463
मेन 11464
推薦 11465
▁vsebine 11466
▁aplikacije 11467
udhu 11468
▁joudu 11469
▁dies 11470
▁ଟଙ୍କାର 11471
▁terminu 11472
▁படத்தை 11473
▁փաստաթղթեր 11474
歌詞 11475
מפי 11476
HUS 11477
毕 11478
▁هوس 11479
els 11480
īgiem 11481
▁Maali 11482
ম্বা 11483
eix 11484
▁anterior 11485
▁geändert 11486
▁bri 11487
သြင္း 11488
▁suositu 11489
▁det 11490
▁tam 11491
állomány 11492
▁παιχνίδια 11493
▁nyitott 11494
▁Your 11495
tirgan 11496
▁գործով 11497
▁outlet 11498
leştiril 11499
brus 11500
აციო 11501
▁bruto 11502
▁76 11503
Це 11504
▁Nathan 11505
▁அவருக்கு 11506
▁orang 11507
▁Bila 11508
▁ተነ 11509
ਿਨ 11510
포항 11511
▁пусна 11512
最高 11513
▁දාන 11514
▁categorías 11515
WEB 11516
tatni 11517
테크 11518
нүүд 11519
بقي 11520
이라면 11521
ສາມ 11522
▁Vég 11523
▁ከወ 11524
loppet 11525
▁Кине 11526
តំបន់ 11527
wit 11528
▁Плат 11529
▁ئۇچ 11530
▁97 11531
วรรณ 11532
迷 11533
beszél 11534
▁excelent 11535
▁forma 11536
izar 11537
▁metodik 11538
▁nastupi 11539
▁sākot 11540
فيه 11541
▁rhag 11542
▁realiz 11543
דיא 11544
tys 11545
节能 11546
▁اہلکار 11547
貢獻 11548
▁ಕುರಿತ 11549
嬰兒 11550
ネットワーク 11551
一人で 11552
▁imtina 11553
▁Era 11554
seirbhís 11555
ซ่อม 11556
▁Mokslas 11557
▁fytyrë 11558
核 11559
▁всякакви 11560
ثنائية 11561
lor 11562
bha 11563
ಯವರು 11564
▁повреди 11565
▁municipal 11566
▁Comissão 11567
▁реше 11568
uzi 11569
▁energija 11570
▁satışı 11571
јка 11572
▁traditionell 11573
▁flu 11574
▁favoritter 11575
▁дәлел 11576
▁ἐ 11577
▁бивши 11578
વડા 11579
▁pagitan 11580
인은 11581
っていう 11582
变 11583
출 11584
▁τηλε 11585
を進め 11586
▁Fedha 11587
楼 11588
▁बाळ 11589
երս 11590
その時 11591
▁பிடிக்க 11592
▁legitima 11593
8%) 11594
ຂ່າວສານ 11595
lana 11596
▁നൽകിയ 11597
ânica 11598
サービスの 11599
▁Elisa 11600
▁ഇള 11601
の中から 11602
▁When 11603
▁pripravlja 11604
不見 11605
▁Warna 11606
▁lasciare 11607
▁fillos 11608
white 11609
▁Bangsa 11610
GA 11611
▁dias 11612
ക്തി 11613
▁дуртай 11614
ജോ 11615
ite 11616
▁Bis 11617
սե 11618
とお 11619
థా 11620
▁vekst 11621
ставляем 11622
▁barok 11623
▁Gro 11624
への 11625
Rad 11626
դին 11627
擠 11628
жені 11629
餐饮 11630
앙 11631
遵循 11632
卜 11633
ônica 11634
▁netiek 11635
▁match 11636
záleží 11637
《 11638
▁උතුරු 11639
▁અમારી 11640
▁viatgers 11641
גוף 11642
▁बहि 11643
▁sla 11644
▁Kongre 11645
▁Hasiera 11646
▁कसैले 11647
▁товары 11648
經 11649
▁पुगेका 11650
oikeudet 11651
▁níž 11652
▁Mỹ 11653
▁anvendelse 11654
▁любых 11655
ystävä 11656
▁stia 11657
▁راستای 11658
▁teachers 11659
待ち 11660
的价值 11661
oglu 11662
小組 11663
▁recta 11664
▁Session 11665
▁﴿ 11666
积极 11667
▁gezicht 11668
▁aman 11669
▁lisens 11670
▁350 11671
žimo 11672
▁kariér 11673
▁Mesaj 11674
виконав 11675
▁sav 11676
▁Cirk 11677
をご紹介 11678
▁Batı 11679
▁Лип 11680
беля 11681
▁Zlín 11682
▁enbart 11683
론 11684
▁engedélyez 11685
เดีย 11686
▁pašā 11687
▁84 11688
▁Արա 11689
精緻 11690
赢得 11691
▁إست 11692
▁Email 11693
▁विद्यार्थ्यां 11694
▁Gjykatë 11695
▁Přihlásit 11696
▁increíble 11697
94 11698
▁Ovdje 11699
▁sen 11700
▁اسکا 11701
▁berharga 11702
▁Wajah 11703
▁mong 11704
rke 11705
▁felhasznál 11706
σοφ 11707
Program 11708
▁affronta 11709
선거 11710
▁sebaik 11711
▁Daudz 11712
rö 11713
▁összesen 11714
▁tingin 11715
li 11716
tik 11717
wriaeth 11718
▁xalqın 11719
▁szeretnék 11720
▁ამისა 11721
▁71 11722
▁številne 11723
▁športov 11724
çıların 11725
lys 11726
▁medarbejder 11727
獨特的 11728
▁Մո 11729
が高く 11730
▁بنائے 11731
vést 11732
ിപ്പിച്ചു 11733
lokhu 11734
▁ten 11735
▁tonga 11736
▁ысы 11737
▁qardaş 11738
▁pilk 11739
▁Mann 11740
▁gjuhës 11741
医院 11742
▁categori 11743
▁բյուջե 11744
▁встановлено 11745
ตื่น 11746
nyi 11747
▁Untersuchung 11748
▁afbeelding 11749
ເຊີນ 11750
▁keyboard 11751
▁önálló 11752
一定 11753
ડ્ર 11754
thach 11755
▁conseiller 11756
所 11757
▁Internetseite 11758
irnar 11759
▁period 11760
▁धारणा 11761
▁sodeluje 11762
▁Kiev 11763
就知道 11764
braukt 11765
supra 11766
▁basket 11767
▁biolog 11768
BON 11769
จัดทํา 11770
איי 11771
▁73 11772
▁twarz 11773
▁zadnjem 11774
酸 11775
▁പ്രശ്ന 11776
ádá 11777
▁વધી 11778
▁максатында 11779
▁Store 11780
ఎఫ్ 11781
▁самиот 11782
ghail 11783
▁aloittaa 11784
▁ਸੁਰ 11785
æl 11786
▁патот 11787
▁produkten 11788
bhre 11789
汽车 11790
ANDI 11791
▁помогнат 11792
거래 11793
▁kissa 11794
▁Olisi 11795
sh 11796
▁English 11797
▁invité 11798
額 11799
▁stavi 11800
▁przeczyta 11801
▁Tác 11802
ėlio 11803
鹏 11804
新西兰 11805
▁никад 11806
懷孕 11807
նես 11808
▁Engagement 11809
▁Mtendaji 11810
▁agrícola 11811
▁suite 11812
▁Christian 11813
▁folosește 11814
▁اړوند 11815
▁60 11816
▁երբեք 11817
uran 11818
▁Consulting 11819
▁portanto 11820
▁policisë 11821
▁Güvenlik 11822
sí 11823
▁fitore 11824
ړن 11825
▁recomana 11826
▁problemele 11827
一分 11828
▁monda 11829
ことが 11830
हरूमा 11831
▁пожал 11832
▁موقت 11833
▁Yaşam 11834
▁sprejel 11835
▁галіне 11836
jai 11837
▁серии 11838
▁տիր 11839
名為 11840
▁poroča 11841
entes 11842
▁jalka 11843
▁учурунда 11844
dje 11845
ატორი 11846
ୁର 11847
球隊 11848
▁lov 11849
ỹ 11850
▁euró 11851
▁nadšen 11852
層 11853
▁автомобиля 11854
▁spomenut 11855
yilda 11856
гуль 11857
ruv 11858
▁konar 11859
▁приобретен 11860
▁파 11861
想着 11862
▁consent 11863
대행 11864
▁vogel 11865
ทําลาย 11866
なくなり 11867
▁Xil 11868
▁kamēr 11869
国际化 11870
▁बाप 11871
397 11872
▁funció 11873
▁coup 11874
▁Immobilien 11875
ιτς 11876
▁Ul 11877
▁hanki 11878
▁példá 11879
පාන 11880
recht 11881
▁marge 11882
▁Thomas 11883
▁Terus 11884
เมล็ด 11885
▁Verbesserung 11886
▁Aslında 11887
▁ili 11888
oti 11889
▁geschützt 11890
▁зорилт 11891
▁provenienti 11892
▁təkcə 11893
gina 11894
▁предпри 11895
▁shak 11896
▁outra 11897
СТРА 11898
▁облысында 11899
▁abdi 11900
▁lamenta 11901
ทราย 11902
zal 11903
次回 11904
の間に 11905
▁chargé 11906
▁calatori 11907
ana 11908
حاق 11909
ბორ 11910
▁кінці 11911
▁עבודת 11912
▁prizor 11913
▁virus 11914
▁çıkart 11915
▁Sər 11916
念 11917
▁Yama 11918
▁izvrši 11919
▁univers 11920
େଟ 11921
▁அதிகாரி 11922
九州 11923
▁простой 11924
▁عسکر 11925
▁sakinləri 11926
▁ölç 11927
喜欢 11928
▁хоће 11929
ичката 11930
438 11931
Natur 11932
たちの 11933
▁Pakistan 11934
▁wiedział 11935
▁Wajib 11936
) 11937
▁ya 11938
nizsə 11939
▁ਪਿਆ 11940
finden 11941
ВАНЕ 11942
▁chur 11943
▁oro 11944
▁Pend 11945
▁lekë 11946
Linux 11947
▁refer 11948
নিউজ 11949
ردن 11950
គោ 11951
▁Také 11952
▁ජල 11953
滿 11954
sione 11955
ทั่วประเทศ 11956
▁perfetta 11957
ทะเบียน 11958
ตั๋ว 11959
▁unha 11960
▁täynnä 11961
AC 11962
▁possuem 11963
▁účinky 11964
▁panduan 11965
RAY 11966
フレ 11967
▁الإعلان 11968
Ke 11969
▁تنهنجي 11970
stiden 11971
▁चोर 11972
rci 11973
▁მაისი 11974
▁ദൈവം 11975
СЛ 11976
Κ 11977
390 11978
▁යෝජනාව 11979
▁Bapak 11980
기 11981
시티 11982
ቤተክርስቲያን 11983
▁formában 11984
ניצח 11985
寫 11986
▁Krakow 11987
▁instrumental 11988
▁முடிந்த 11989
▁Singa 11990
背 11991
▁firmę 11992
▁putri 11993
▁Марковић 11994
▁Энд 11995
pata 11996
▁ජාතිය 11997
▁دفن 11998
gunean 11999
▁Mun 12000
▁이 12001
ไน 12002
isation 12003
▁gedig 12004
▁prossimi 12005
▁estética 12006
航 12007
▁valstu 12008
Ř 12009
人们 12010
▁scheme 12011
▁kasvaa 12012
▁détail 12013
▁attribut 12014
▁herpes 12015
▁طراح 12016
нууд 12017
hân 12018
▁গ্র 12019
纲 12020
已经有 12021
侦 12022
▁хүлээж 12023
ger 12024
守 12025
▁Дес 12026
▁나오는 12027
蚊 12028
▁pěti 12029
▁közvetlen 12030
爛 12031
ሒ 12032
▁both 12033
▁Catedral 12034
▁8- 12035
▁кеңейт 12036
▁americani 12037
▁Spanyol 12038
▁національної 12039
▁සුළු 12040
拥有 12041
▁بېرىپ 12042
▁nyilván 12043
dar 12044
▁Güneş 12045
버튼 12046
▁Jump 12047
Gri 12048
아시아 12049
▁Feuer 12050
▁Situat 12051
რეალ 12052
▁Boże 12053
▁Weight 12054
▁преп 12055
▁برده 12056
력 12057
▁Heidi 12058
▁المعلم 12059
这样的 12060
▁spacer 12061
клик 12062
▁vremenu 12063
แจก 12064
▁protokoll 12065
▁بردار 12066
ton 12067
วางแผน 12068
łaś 12069
看不到 12070
قع 12071
影響 12072
ການຮ່ວມມື 12073
▁Møte 12074
▁daw 12075
▁válik 12076
▁Magi 12077
stanku 12078
ထာ 12079
flat 12080
કારો 12081
船 12082
▁Verme 12083
OVO 12084
iranjem 12085
kl 12086
播出 12087
▁pensé 12088
노 12089
▁diretti 12090
易 12091
dobrovol 12092
▁Parang 12093
▁eksterne 12094
świat 12095
▁Kuigi 12096
科学 12097
▁деңгейін 12098
▁көбі 12099
▁respect 12100
ництва 12101
▁அமெரிக்க 12102
ερ 12103
鍊 12104
渔 12105
厉害 12106
▁स्वतंत्र 12107
▁техническо 12108
交通事故 12109
▁Amazon 12110
っぽ 12111
クラブ 12112
逗 12113
406 12114
▁Hiina 12115
sht 12116
▁Vorbereitung 12117
▁кітапхана 12118
hid 12119
▁comportamiento 12120
▁Oifig 12121
▁ul 12122
▁түмэн 12123
▁қанша 12124
▁Bak 12125
▁надлежно 12126
▁snaaks 12127
▁Walau 12128
▁Nos 12129
▁запазва 12130
▁Ռա 12131
ערה 12132
werten 12133
▁ചൈന 12134
聽 12135
▁popullit 12136
itheach 12137
▁الكتب 12138
▁podido 12139
症 12140
EIS 12141
對話 12142
život 12143
▁مفيد 12144
mas 12145
▁razne 12146
lipokuwa 12147
▁fylla 12148
▁Lent 12149
▁огне 12150
▁(10 12151
▁क्षेत्रका 12152
▁Ման 12153
大赛 12154
▁Rasi 12155
第八 12156
ాము 12157
ພົວພັນ 12158
▁būklės 12159
▁: 12160
Z 12161
▁pocket 12162
8,5 12163
▁skupini 12164
▁የተቀ 12165
加入 12166
沖縄 12167
วิทยาลัย 12168
会议 12169
:10 12170
▁જોઇએ 12171
▁78 12172
▁frykt 12173
▁העור 12174
▁образовања 12175
我们的 12176
▁mewah 12177
▁зүйлийг 12178
▁ظفر 12179
vek 12180
ສວນ 12181
各國 12182
mérnök 12183
▁cărui 12184
▁الرياضية 12185
▁çizgi 12186
產 12187
▁växa 12188
っていない 12189
ционные 12190
વાં 12191
▁Sunny 12192
▁представление 12193
шћа 12194
1944 12195
▁paper 12196
▁مړ 12197
stempel 12198
try 12199
נעל 12200
▁மகா 12201
▁74 12202
▁morta 12203
▁Puig 12204
▁Cantik 12205
▁Hashim 12206
ányok 12207
▁адносін 12208
▁Akbar 12209
ंमध्ये 12210
▁ಆಡ 12211
цова 12212
▁1881 12213
▁Котор 12214
▁Yu 12215
▁Magnet 12216
ANTO 12217
700 12218
▁ähnlich 12219
Ну 12220
▁अरुण 12221
治療 12222
ण्ट 12223
ಬಂದ 12224
▁Street 12225
▁DE 12226
ልስ 12227
▁escapar 12228
▁Schreiben 12229
ливий 12230
kovic 12231
▁գործերի 12232
▁pamje 12233
这份 12234
iramo 12235
▁попита 12236
▁দেবে 12237
▁Vella 12238
百姓 12239
▁internațional 12240
ದ್ದೇ 12241
歇 12242
登录 12243
▁postingan 12244
▁Amharic 12245
▁Filosofi 12246
unum 12247
ჯილდო 12248
▁ଖାଇବା 12249
ster 12250
▁skończy 12251
▁podobný 12252
▁അദ്ദേഹത്തിന്റെ 12253
▁binatang 12254
tze 12255
▁لديك 12256
▁Lukas 12257
▁κάποιοι 12258
▁qoşul 12259
tty 12260
▁δομ 12261
▁വച്ച് 12262
▁знайде 12263
lő 12264
▁ایالت 12265
▁rostlin 12266
▁તને 12267
ുന്നവര് 12268
▁процедуры 12269
▁büdcəsi 12270
fusión 12271
本 12272
▁등으로 12273
▁singură 12274
▁Natur 12275
impatto 12276
អន្តរជាតិ 12277
boj 12278
▁trompe 12279
▁установленном 12280
▁싶어 12281
▁serija 12282
▁llamar 12283
▁komentáre 12284
▁новац 12285
▁پراخ 12286
পাত 12287
▁შემდგომ 12288
▁പച്ച 12289
▁evaluat 12290
शिप 12291
ΑΝΤ 12292
pender 12293
ವರೆಗೂ 12294
开发 12295
tra 12296
▁FC 12297
▁Protocol 12298
ुका 12299
▁епі 12300
398 12301
▁zahtjeva 12302
▁பெரும் 12303
버 12304
klę 12305
lääkäri 12306
▁portata 12307
دوار 12308
▁oyunda 12309
▁portant 12310
▁tanıma 12311
▁marchio 12312
▁többek 12313
税务 12314
▁normes 12315
▁αριθμό 12316
izol 12317
배 12318
 12319
▁vel 12320
ארוחת 12321
▁zaščite 12322
▁ଘଟି 12323
円 12324
▁შევი 12325
▁obdobju 12326
集团 12327
情報 12328
▁smör 12329
▁Ki 12330
િશ 12331
▁آخري 12332
cra 12333
છા 12334
▁Hijer 12335
▁markaas 12336
ຫຼັງຈາກ 12337
▁Воло 12338
PI 12339
▁Ruta 12340
▁රවී 12341
aiatzaren 12342
▁سرڪاري 12343
ባረ 12344
▁գիշեր 12345
ခ်မ္း 12346
ości 12347
▁seçimi 12348
▁سايت 12349
skie 12350
サイトの 12351
▁add 12352
ycznie 12353
▁Ni 12354
週 12355
Ogóln 12356
▁силна 12357
▁Кари 12358
ချက်များ 12359
ຍິງ 12360
accelera 12361
▁budur 12362
▁electrònica 12363
ることができ 12364
სათვის 12365
▁مجدد 12366
ΙΑΣ 12367
АБА 12368
▁சமய 12369
快递 12370
借助 12371
▁स्मार्ट 12372
▁இல்லாமல் 12373
▁سلسلة 12374
▁... 12375
▁đậu 12376
▁Cənubi 12377
▁kolom 12378
▁ചെയ്യൂ 12379
-9 12380
▁изгради 12381
▁trygt 12382
foar 12383
krat 12384
▁potrošn 12385
▁chiesa 12386
▁הבלוג 12387
▁выража 12388
kum 12389
▁জনের 12390
▁Dreve 12391
บุตร 12392
rant 12393
ისტ 12394
▁представления 12395
高等 12396
▁చిత్రంలో 12397
▁prof 12398
▁proposal 12399
▁असली 12400
▁följd 12401
▁कैद 12402
▁bón 12403
▁тешки 12404
▁Kalli 12405
pravljanje 12406
ασμός 12407
ישער 12408
▁γιορτ 12409
持 12410
▁ഉണ്ടാവ 12411
▁नेताहरु 12412
teenistus 12413
havia 12414
▁Тот 12415
▁ստանալ 12416
▁తాగ 12417
ratkaisu 12418
▁horri 12419
▁skolā 12420
ോസ് 12421
▁revi 12422
faqat 12423
öljy 12424
ផ្សារ 12425
▁տեղում 12426
lish 12427
▁øjeblik 12428
▁oživ 12429
เยาวชน 12430
▁Fotoğraf 12431
ūs 12432
▁caranya 12433
▁رہتا 12434
▁ప్రో 12435
లొ 12436
▁காரண 12437
▁Умовы 12438
▁Form 12439
▁चरणमा 12440
▁mindez 12441
▁матері 12442
▁Campos 12443
短信 12444
9° 12445
ασμένο 12446
老师 12447
▁minutu 12448
heyr 12449
▁killed 12450
▁rekon 12451
乐 12452
átok 12453
▁Вики 12454
৩০ 12455
▁ئاخىر 12456
ंद्र 12457
rade 12458
▁spí 12459
▁решавање 12460
▁lämnar 12461
▁belê 12462
edu 12463
▁μ 12464
454 12465
هري 12466
▁Listo 12467
▁lancé 12468
▁дозволе 12469
▁tart 12470
ЕНТ 12471
hai 12472
▁Kerst 12473
▁оставить 12474
dejte 12475
▁Hazır 12476
▁kyau 12477
▁Nä 12478
▁Centar 12479
ƏR 12480
llisuuden 12481
▁labā 12482
▁específicos 12483
赖 12484
一种 12485
传递 12486
▁தெரிவிக்க 12487
ацијом 12488
▁interracial 12489
▁körülmények 12490
▁ستونزو 12491
Кү 12492
wod 12493
सारख्या 12494
▁isteyenler 12495
▁المقرر 12496
▁rede 12497
america 12498
полнение 12499
▁pon 12500
▁proveden 12501
פֿן 12502
▁Kata 12503
וניים 12504
SS 12505
لاشتۇرۇش 12506
ဆရာေတာ္ 12507
▁Person 12508
clé 12509
▁fëmijëve 12510
▁четко 12511
▁program 12512
▁sites 12513
▁caawi 12514
▁айтыш 12515
▁lerni 12516
gaadh 12517
▁szerepe 12518
▁مانا 12519
แผนที่ 12520
▁linia 12521
関わ 12522
سوس 12523
화가 12524
--> 12525
86 12526
▁اللهم 12527
▁geratu 12528
▁gördük 12529
ījusi 12530
Per 12531
▁شوهر 12532
▁popri 12533
ляції 12534
▁He 12535
nā 12536
払 12537
▁სიტყვები 12538
▁පොර 12539
ærer 12540
KE 12541
ύρη 12542
▁ئىشلى 12543
ወጣው 12544
കാരന് 12545
▁taxes 12546
▁இள 12547
订单 12548
ρεί 12549
▁powietrza 12550
▁considera 12551
▁Heç 12552
▁ырда 12553
plé 12554
hun 12555
▁TRT 12556
頗 12557
颁 12558
▁يحب 12559
▁1.200 12560
罢 12561
▁Kalle 12562
盐 12563
双 12564
ntotdeauna 12565
ပစၥည္း 12566
ഛ 12567
12 12568
▁axaftin 12569
gene 12570
▁binlerce 12571
mpa 12572
▁выкарыстання 12573
▁Андрэй 12574
▁eli 12575
▁چڪو 12576
▁səfəri 12577
找到 12578
▁전환 12579
JANA 12580
▁ततः 12581
домашн 12582
LE 12583
kártya 12584
▁sigorta 12585
の 12586
JE 12587
ล้ม 12588
▁Paypal 12589
.11.2016 12590
▁ümid 12591
▁համարվում 12592
▁Motion 12593
▁kalın 12594
▁spraw 12595
▁dûr 12596
နို 12597
ttujen 12598
औँ 12599
tekintés 12600
▁odziv 12601
ଳୁ 12602
ُّ 12603
▁2010 12604
▁δ 12605
ుంది 12606
▁여 12607
увало 12608
Kö 12609
οντα 12610
வில 12611
ੰਦਾ 12612
▁preventivo 12613
maz 12614
बुद्ध 12615
seaduse 12616
▁õnnestu 12617
▁հասնել 12618
tumėte 12619
ርቶ 12620
tana 12621
▁පුර 12622
confort 12623
environ 12624
cro 12625
▁אלינו 12626
咪 12627
▁cuairt 12628
勉 12629
пустити 12630
▁ремонта 12631
淘汰 12632
▁साँ 12633
▁censura 12634
受験 12635
▁തട്ടി 12636
▁erthygl 12637
lī 12638
▁միջավայր 12639
▁ଖୋଲି 12640
▁επιστροφή 12641
▁шийдвэрлэх 12642
▁වුවත් 12643
▁maschi 12644
ጉዳዩ 12645
▁mayor 12646
▁erlebt 12647
▁Sud 12648
▁његовим 12649
▁компаниуд 12650
▁ოპერაცი 12651
▁AK 12652
▁അതിനെ 12653
较为 12654
ainm 12655
▁Lopez 12656
SNS 12657
▁domum 12658
▁κυβερνητικ 12659
▁ଆଇନ 12660
ၾကည့္ 12661
80.000 12662
我们 12663
▁cari 12664
▁салуу 12665
ブ 12666
國中 12667
▁bağı 12668
ාධිපති 12669
ğumuz 12670
スポット 12671
▁límites 12672
klá 12673
增长 12674
5.8 12675
▁sumus 12676
ରାଇ 12677
cina 12678
arðandi 12679
δα 12680
▁알아보 12681
▁දවසක 12682
teenuse 12683
születés 12684
▁மார் 12685
还需要 12686
▁группе 12687
▁называют 12688
▁сећа 12689
▁биха 12690
▁шешім 12691
▁καταφέρ 12692
だし 12693
▁podporuje 12694
▁Ошондо 12695
អាមេរិក 12696
▁учебни 12697
▁Sarri 12698
▁объединен 12699
帐 12700
厨房 12701
轰 12702
គុណ 12703
▁Hợp 12704
▁άσκηση 12705
▁Nov 12706
▁advertising 12707
▁клітин 12708
探 12709
▁pengajian 12710
Lo 12711
古典 12712
август 12713
▁mínútu 12714
仍 12715
▁сусід 12716
ហោ 12717
▁особе 12718
▁imellem 12719
▁Privasi 12720
आज 12721
▁Motor 12722
波动 12723
▁tiếc 12724
▁öte 12725
龍 12726
穿著 12727
▁Robinson 12728
▁Želim 12729
左右 12730
▁Βασιλ 12731
▁stundas 12732
▁بينها 12733
▁الوجه 12734
▁محم 12735
գիտ 12736
引 12737
ABU 12738
▁sasniegt 12739
▁사람의 12740
wóz 12741
բար 12742
ುದು 12743
▁sonuçlar 12744
िणी 12745
▁Bauer 12746
▁духовни 12747
▁свободы 12748
ടും 12749
▁Plac 12750
▁gratuït 12751
▁cultural 12752
câ 12753
▁transmitir 12754
ala 12755
▁food 12756
وسط 12757
▁आयु 12758
влечение 12759
▁rokok 12760
AP 12761
▁nút 12762
▁агентство 12763
▁Spiel 12764
▁hemat 12765
ੈਂਸ 12766
▁нөөц 12767
dige 12768
▁kajak 12769
ນາຍ 12770
▁SAY 12771
iiii 12772
贪 12773
ília 12774
關 12775
tiradi 12776
ؒ 12777
ct 12778
▁pot 12779
▁ngừa 12780
▁minute 12781
▁Geographic 12782
ຖາມ 12783
最後 12784
▁شیشه 12785
दम 12786
▁सक्षम 12787
▁pohjois 12788
RS 12789
▁удаагийн 12790
▁የትምህርት 12791
▁namenom 12792
▁gjerë 12793
▁ايف 12794
▁desideri 12795
▁why 12796
“ 12797
들을 12798
Единствен 12799
sýni 12800
▁शकते 12801
▁كنيد 12802
ial 12803
impact 12804
лерінің 12805
ရႈ 12806
unkban 12807
ذلك 12808
ሏል 12809
Kompeten 12810
▁fru 12811
▁bussen 12812
▁рачунар 12813
▁haberleri 12814
X 12815
▁course 12816
ნქ 12817
▁leşker 12818
дэнт 12819
ановић 12820
▁atractivo 12821
ቤቱ 12822
ىلدى 12823
▁barbat 12824
соціал 12825
送信 12826
стил 12827
uks 12828
ційної 12829
▁Programı 12830
Egy 12831
▁खड 12832
▁tornou 12833
▁એમાં 12834
Мобил 12835
መቅ 12836
▁കാട്ട 12837
NUS 12838
▁tokį 12839
亩 12840
▁sankcij 12841
մեր 12842
▁may 12843
▁rela 12844
สงขลา 12845
▁καφέ 12846
▁account 12847
▁sübut 12848
ហ៊ 12849
可是 12850
▁ustida 12851
mag 12852
▁Sitesi 12853
asi 12854
▁2010. 12855
▁Sil 12856
förbund 12857
▁논의 12858
▁podobnie 12859
ಕರಣ 12860
▁(...) 12861
ເນື້ອ 12862
logisch 12863
▁Jugendliche 12864
LŐ 12865
▁Slovak 12866
去年 12867
▁greš 12868
แทบ 12869
▁dollar 12870
직 12871
schen 12872
▁օդ 12873
▁escapa 12874
▁لگی 12875
▁minimum 12876
▁اختصاصی 12877
▁Kalla 12878
時 12879
milyen 12880
继续 12881
खेल 12882
▁dolaze 12883
▁hız 12884
ບໍ່ໄດ້ 12885
▁ಅಷ್ಟ 12886
▁ჟურნალისტ 12887
▁naturligt 12888
成本 12889
▁theory 12890
▁uitstekende 12891
▁показват 12892
效果 12893
筆者 12894
ระเบียบ 12895
ທີ່ເປັນ 12896
kach 12897
▁কমিটি 12898
ក្រោម 12899
鬧 12900
▁последно 12901
वाडी 12902
พลาสติก 12903
▁Vancouver 12904
▁hvenær 12905
 12906
▁निर्यात 12907
สู 12908
▁đốt 12909
▁영역 12910
תוספת 12911
mul 12912
▁מעניין 12913
▁regna 12914
athlon 12915
▁برطرف 12916
多樣 12917
▁gdzieś 12918
ाधिक 12919
▁пісні 12920
INK 12921
වීමෙන් 12922
▁xâm 12923
자들은 12924
▁Aboneaz 12925
Uradni 12926
dot 12927
xeta 12928
▁hilbijartin 12929
▁prosim 12930
▁дето 12931
▁gerak 12932
▁aplikace 12933
▁czasach 12934
AA 12935
▁Logistik 12936
▁nganti 12937
▁tarefas 12938
工会 12939
▁luovut 12940
▁заявіў 12941
邊 12942
者 12943
kvöld 12944
рения 12945
णार् 12946
强制 12947
јско 12948
ótica 12949
▁trovo 12950
纳 12951
▁അച്ഛന് 12952
ଃ 12953
mont 12954
お問い合わせください 12955
▁лицом 12956
类 12957
▁მთელ 12958
▁ზღვა 12959
▁bestilt 12960
dda 12961
▁bekrefte 12962
▁оборони 12963
20 12964
▁renka 12965
vægt 12966
▁първа 12967
feminism 12968
чувати 12969
pdf 12970
▁sram 12971
పడుతున్న 12972
▁25.000 12973
▁दिव्य 12974
έφερε 12975
济南 12976
▁потребности 12977
넓 12978
▁оприлюдн 12979
▁Qüvvələri 12980
반 12981
▁Aldundia 12982
▁without 12983
▁FA 12984
▁ବିଜୁ 12985
▁літак 12986
rte 12987
▁godkendt 12988
▁актілер 12989
▁എന്നതാണ് 12990
▁Green 12991
▁Vendi 12992
森 12993
Matt 12994
▁თვე 12995
stavila 12996
▁ದೂರು 12997
▁numerose 12998
שיפור 12999
▁अत 13000
▁ka 13001
▁Sabab 13002
▁Elə 13003
▁Via 13004
σιμη 13005
▁péri 13006
jor 13007
▁Նյու 13008
▁turn 13009
neuvo 13010
fragt 13011
▁недель 13012
▁vii 13013
▁വാങ്ങി 13014
mesi 13015
▁Essay 13016
▁Budapesten 13017
▁baseado 13018
▁ചെന്ന 13019
▁※ 13020
修復 13021
UNTA 13022
терорист 13023
дух 13024
▁sal 13025
୧୨ 13026
▁vindeca 13027
magnet 13028
ებოდნენ 13029
ON 13030
▁явуул 13031
свобод 13032
ivité 13033
当たり前 13034
▁ідзе 13035
▁დადგ 13036
漠 13037
▁básicas 13038
ame 13039
聪明 13040
▁страха 13041
▁mərkəz 13042
賜 13043
equilibri 13044
慶祝 13045
▁Rama 13046
รบกวน 13047
небудзь 13048
aw 13049
▁sea 13050
▁gyntaf 13051
水 13052
▁Chu 13053
▁ሚዲያ 13054
决定 13055
▁σημαντικά 13056
▁Oliveira 13057
▁henkilöstö 13058
▁renkli 13059
▁шкіл 13060
▁Szkole 13061
返 13062
▁artifici 13063
▁bike 13064
▁tətbiqi 13065
▁לידי 13066
▁الجوية 13067
▁ističe 13068
喝 13069
कुठ 13070
ný 13071
▁VPorn 13072
ជាមួយនឹង 13073
性質 13074
▁каждому 13075
▁Zahid 13076
uudella 13077
lands 13078
дици 13079
▁berilgan 13080
觉得 13081
נגר 13082
نضمام 13083
кок 13084
▁мења 13085
▁Convention 13086
קומה 13087
ume 13088
▁mədəni 13089
▁akhirat 13090
▁kurām 13091
មួយចំនួន 13092
informació 13093
▁кыйын 13094
▁западни 13095
▁Camar 13096
▁tränar 13097
▁megnéz 13098
î 13099
▁pruži 13100
▁написать 13101
▁ಕಾಮ 13102
投資 13103
▁Zadar 13104
▁dirigida 13105
▁अट 13106
自分は 13107
▁tədbirləri 13108
▁idején 13109
▁фудбалер 13110
▁praktiske 13111
▁Huo 13112
▁síður 13113
▁baby 13114
▁хуралд 13115
iji 13116
中国科学院 13117
ให้เห็น 13118
דרכה 13119
▁маси 13120
厳 13121
▁ibunya 13122
フランス 13123
▁change 13124
ಳಿಗೆ 13125
▁Facultad 13126
▁Sembilan 13127
▁1-2 13128
▁has 13129
hna 13130
▁erakusketa 13131
▁31. 13132
▁المسجد 13133
row 13134
▁martxan 13135
▁nimetatud 13136
yxati 13137
하려면 13138
▁fjar 13139
▁Prešov 13140
▁centrál 13141
▁Vapaa 13142
▁Бидний 13143
▁gai 13144
▁వీడియోలు 13145
▁притвор 13146
▁bedoel 13147
érő 13148
會 13149
▁näitab 13150
▁մանկ 13151
▁qayğı 13152
▁salon 13153
▁educat 13154
слыша 13155
kia 13156
▁beseda 13157
▁מבית 13158
জ্ঞ 13159
EK 13160
▁creada 13161
临时 13162
▁Siyah 13163
▁chả 13164
ետադարձ 13165
▁Abid 13166
ьба 13167
▁Maha 13168
▁gauzak 13169
ጥራት 13170
▁ଦିଗ 13171
▁optim 13172
▁2: 13173
▁učiteľ 13174
▁ನುಡಿ 13175
▁aanval 13176
ತೋ 13177
gad 13178
▁sultan 13179
▁tjene 13180
▁വലിച്ച 13181
sistencia 13182
▁Správ 13183
▁Данил 13184
保障 13185
▁xatırla 13186
▁amaç 13187
▁Kā 13188
ிக்கும் 13189
に必要な 13190
нцев 13191
czona 13192
▁minimaal 13193
▁לבר 13194
nje 13195
tah 13196
▁pracovník 13197
jenga 13198
苑 13199
▁FAC 13200
▁nástroje 13201
IV 13202
▁Beste 13203
dana 13204
▁《 13205
▁ningunha 13206
只能 13207
āli 13208
▁colesterol 13209
之後 13210
ਰੀਆ 13211
ផ្នែក 13212
▁стању 13213
gle 13214
ទៅកាន់ 13215
▁previše 13216
▁camera 13217
▁Rom 13218
▁nuværende 13219
eco 13220
▁खाद्य 13221
▁дошао 13222
▁categorii 13223
zungumzia 13224
▁vəkili 13225
сады 13226
▁የኮ 13227
▁получават 13228
▁grutte 13229
彼は 13230
▁Memper 13231
no 13232
▁nach 13233
ril 13234
▁trebala 13235
▁Patrimonio 13236
αφή 13237
▁ЦК 13238
yenler 13239
▁RSS 13240
▁художн 13241
▁Portugal 13242
▁polja 13243
▁cihaz 13244
社会保障 13245
▁గాయ 13246
▁Positiv 13247
▁Стари 13248
▁ತಿಳಿಸಿ 13249
▁மனம் 13250
imu 13251
▁түсіндір 13252
工場 13253
▁затвора 13254
▁regjeringen 13255
řízení 13256
着 13257
▁poruch 13258
يوې 13259
▁Comp 13260
ثور 13261
Card 13262
茅 13263
라고 13264
▁posat 13265
▁tıklayın 13266
etti 13267
 13268
▁kažko 13269
▁Cup 13270
07. 13271
▁Bagaimanapun 13272
▁ab 13273
Java 13274
▁майрам 13275
ത്തുന്ന 13276
▁chối 13277
عترف 13278
▁неопходн 13279
▁aka 13280
▁Γιάννης 13281
▁rinkos 13282
智 13283
▁сѐ 13284
▁Brü 13285
▁negru 13286
જ્ 13287
▁Colorado 13288
▁overblik 13289
▁යාපාරය 13290
▁ezagun 13291
▁tunggal 13292
▁nasil 13293
గ్గ 13294
!!! 13295
▁Leben 13296
▁missed 13297
记住 13298
▁משחקי 13299
βό 13300
▁meri 13301
▁մեղադր 13302
保护 13303
▁gogor 13304
▁Uma 13305
处理 13306
上司 13307
▁borgere 13308
ುತ್ತಿವೆ 13309
▁figura 13310
▁Nilai 13311
corri 13312
▁өгүүл 13313
▁hoping 13314
Watch 13315
▁درصدی 13316
BU 13317
▁Bri 13318
▁замисли 13319
▁କରା 13320
▁Asif 13321
▁ಮಾತನಾಡಿ 13322
外觀 13323
kraan 13324
▁1980 13325
▁παραγωγή 13326
cap 13327
一遍 13328
▁місяці 13329
紧紧 13330
叙利亚 13331
砸 13332
▁kjære 13333
锡 13334
▁минава 13335
阿拉伯 13336
▁Abşeron 13337
▁Whether 13338
▁ausführlich 13339
▁mengerjakan 13340
▁Problem 13341
▁varumärke 13342
esse 13343
lah 13344
képes 13345
▁Ngunit 13346
▁більшості 13347
▁искуства 13348
.12. 13349
▁predomina 13350
▁dijmin 13351
oldeb 13352
▁красива 13353
▁Forside 13354
最后 13355
▁Kikuu 13356
▁flaen 13357
პის 13358
两个 13359
在美國 13360
ЕННЯ 13361
▁ideju 13362
ष्टि 13363
▁liter 13364
▁piknik 13365
ுகிறார் 13366
teater 13367
▁kvalitné 13368
Like 13369
▁глазах 13370
▁Источн 13371
društven 13372
odi 13373
ವರಿ 13374
▁भारतात 13375
▁распоред 13376
▁valvo 13377
▁bandy 13378
Tu 13379
KRI 13380
▁matrac 13381
▁ಹತ್ತಿರ 13382
rre 13383
▁나를 13384
▁seguiment 13385
▁libroj 13386
ようになります 13387
▁attesta 13388
▁төгс 13389
Over 13390
▁explicación 13391
▁hampa 13392
▁posebnim 13393
▁92 13394
▁күніне 13395
▁عرفان 13396
ૂલ 13397
ธร 13398
▁American 13399
▁বাংলাদেশি 13400
▁hope 13401
چونڊن 13402
▁정보 13403
模拟 13404
漸 13405
കുറി 13406
视觉 13407
躁 13408
▁ସଂଖ୍ୟା 13409
チケット 13410
茲 13411
▁Рэспубл 13412
▁Cre 13413
▁nghìn 13414
डम 13415
旅行 13416
לום 13417
▁myšlen 13418
▁qolish 13419
▁måder 13420
▁Дуже 13421
නාව 13422
▁타고 13423
▁privatiz 13424
▁neviens 13425
▁suma 13426
▁серця 13427
速 13428
▁Pilar 13429
зіць 13430
▁ректор 13431
▁направят 13432
▁znakom 13433
päivää 13434
xerunt 13435
▁ryby 13436
▁voodi 13437
mada 13438
ዎችና 13439
▁Soros 13440
вршен 13441
▁передан 13442
▁flaske 13443
▁Kalk 13444
חזה 13445
▁Saksamaa 13446
▁another 13447
ച്ചാ 13448
vance 13449
▁con 13450
인 13451
▁cù 13452
kaz 13453
ได้ยิน 13454
▁моє 13455
▁Билим 13456
▁එල 13457
என்ன 13458
ebb 13459
ស៊ូ 13460
歩いて 13461
468 13462
▁Γιώργο 13463
生活方式 13464
DIY 13465
▁دیدم 13466
▁lyser 13467
不变 13468
▁निवास 13469
荷兰 13470
▁adayı 13471
▁βήμα 13472
▁nouvel 13473
▁అద్భుత 13474
这么 13475
▁چوڭقۇر 13476
ঢ় 13477
▁Brifysgol 13478
▁dzisiejszy 13479
▁것이다 13480
▁Man 13481
lej 13482
▁Možda 13483
▁paziente 13484
mais 13485
▁mendakwa 13486
aku 13487
▁دشوار 13488
▁очекива 13489
▁Torsdag 13490
▁Prze 13491
▁втрат 13492
આર 13493
▁그들은 13494
▁Grön 13495
ii 13496
▁potrete 13497
قاعدہ 13498
▁موسى 13499
▁مدة 13500
especial 13501
▁Navíc 13502
rent 13503
홈 13504
єкти 13505
ינר 13506
▁spremni 13507
▁подій 13508
מגוון 13509
增值 13510
▁पाठव 13511
▁ფონდი 13512
▁проценти 13513
tutkinto 13514
▁steek 13515
www 13516
ЕЧ 13517
▁125 13518
IDAD 13519
fähigkeit 13520
▁faydalan 13521
Γ 13522
▁ప్రయత్నం 13523
▁депутата 13524
▁наступа 13525
loženie 13526
骨 13527
▁edebilir 13528
▁captiv 13529
적이고 13530
▁मोहन 13531
▁adatto 13532
▁əmr 13533
▁काठमाडौंमा 13534
▁toga 13535
▁barbati 13536
▁মানব 13537
▁Den 13538
▁דמ 13539
Гар 13540
متحان 13541
卧 13542
▁reunió 13543
tov 13544
氛圍 13545
ttömyys 13546
协商 13547
宿泊 13548
▁IS 13549
ຂະຫນາດ 13550
▁háirithe 13551
▁Hans 13552
▁Hercegovina 13553
▁esforzo 13554
63 13555
实施 13556
▁Arizona 13557
▁분쟁 13558
展望 13559
▁prirode 13560
▁ਕਰਦਿਆਂ 13561
▁82 13562
INGER 13563
▁বাবে 13564
▁הציבורי 13565
▁አቅ 13566
▁особисто 13567
▁Cikgu 13568
▁ஆறு 13569
▁sho 13570
▁вестник 13571
▁Name 13572
연구원 13573
见面 13574
▁главным 13575
▁тіркеу 13576
сайхан 13577
▁Japan 13578
امات 13579
psi 13580
موضوع 13581
ጌታ 13582
eszköz 13583
置 13584
▁веће 13585
les 13586
▁antiqui 13587
▁يرى 13588
▁kümme 13589
▁ገቢ 13590
雅 13591
▁పైన 13592
▁வேக 13593
UK 13594
ukia 13595
▁bellach 13596
▁suggestions 13597
держав 13598
待 13599
▁текстове 13600
голяма 13601
git 13602
وجد 13603
ופו 13604
71 13605
Հայաստան 13606
డిగా 13607
▁hodet 13608
▁брут 13609
的压力 13610
▁λιγ 13611
紛紛 13612
▁بچی 13613
ـــــ 13614
母 13615
rile 13616
ഃ 13617
▁bathroom 13618
▁αληθ 13619
▁döntött 13620
sko 13621
gebühr 13622
▁ismerős 13623
▁ಕಾಯ 13624
bek 13625
▁ಮತ್ತ 13626
▁Lang 13627
▁prvky 13628
▁perfect 13629
结束后 13630
▁hidung 13631
▁першай 13632
पुरुष 13633
ฮั 13634
▁ring 13635
ضبط 13636
Cİ 13637
▁Ren 13638
ണര് 13639
能 13640
▁Chinna 13641
ያደርገ 13642
▁دیکھی 13643
פרד 13644
▁Апа 13645
шүү 13646
태 13647
黄色 13648
▁daugiausia 13649
ခတ္ 13650
▁седми 13651
▁pád 13652
sas 13653
▁obično 13654
▁куди 13655
▁Новий 13656
<3 13657
▁Garage 13658
ָר 13659
▁Ohio 13660
▁silný 13661
▁S 13662
▁ska 13663
▁cutie 13664
的特点 13665
▁የተሰጠ 13666
▁හිතුන 13667
▁minu 13668
สาวๆ 13669
▁historiske 13670
▁gjennomføre 13671
▁Вит 13672
不论 13673
▁izvērtē 13674
▁Μάρ 13675
675 13676
▁regalar 13677
▁rak 13678
絡 13679
▁რამდენი 13680
瓷 13681
震撼 13682
ศิลป 13683
··· 13684
Korisničko 13685
聲 13686
▁Shavkat 13687
▁bij 13688
▁sup 13689
▁cine 13690
▁iegādāties 13691
શાસ્ત્ર 13692
▁hosszabb 13693
▁czytelnik 13694
▁iyagoo 13695
▁верзија 13696
▁വരിക 13697
幾 13698
oggend 13699
▁अंध 13700
▁Ao 13701
▁მოძრაობის 13702
árás 13703
▁Uzņēm 13704
分 13705
▁вреди 13706
▁مهمی 13707
სწავლა 13708
▁ανάπτυξης 13709
▁Pocket 13710
▁компанијата 13711
ניסיון 13712
▁fact 13713
UNDI 13714
ερό 13715
▁velem 13716
тяга 13717
▁ڏنا 13718
おいて 13719
νομο 13720
▁вышел 13721
▁zhvillimin 13722
▁Budapest 13723
▁suaminya 13724
mate 13725
ક્રો 13726
interpret 13727
infarkt 13728
▁Kre 13729
່ວ 13730
▁plimba 13731
▁alto 13732
▁bendi 13733
႐ွိ 13734
▁hatinya 13735
Ku 13736
▁awalnya 13737
▁යුත් 13738
bhadh 13739
ZH 13740
νδυ 13741
نسي 13742
707 13743
▁انگلیس 13744
maðurinn 13745
▁makinë 13746
▁πρά 13747
שואה 13748
▁ben 13749
2009 13750
▁Cố 13751
4.3 13752
▁આપના 13753
סטודנט 13754
rana 13755
▁Stefano 13756
▁ಪ್ರಚಾರ 13757
▁Hoe 13758
ຈັບ 13759
▁esperança 13760
▁נולד 13761
ເຈົ້າຫນ້າທີ່ 13762
▁ഭക്ഷണം 13763
▁lägre 13764
▁알 13765
യാണു 13766
▁Pr 13767
sūtīju 13768
ፈልግ 13769
▁aba 13770
▁Outlet 13771
▁evitando 13772
▁lukija 13773
privat 13774
▁جراح 13775
zketa 13776
ସାଇ 13777
வீடியோ 13778
▁прават 13779
▁lăsat 13780
▁قهرمان 13781
▁deputetë 13782
全部 13783
▁ماست 13784
īs 13785
מטופל 13786
▁undrar 13787
▁Sab 13788
▁podzim 13789
▁darrera 13790
parti 13791
477 13792
▁umrl 13793
feltétel 13794
▁سماجي 13795
▁위 13796
▁പതിവ 13797
YEN 13798
രചന 13799
▁cita 13800
▁podkreśla 13801
穿 13802
▁Druh 13803
》 13804
なので 13805
▁dikim 13806
百萬 13807
▁کانون 13808
▁rodina 13809
▁qetë 13810
부를 13811
▁seçə 13812
猎 13813
▁الثلاث 13814
シーズン 13815
中小企業 13816
盜 13817
▁lounge 13818
kaké 13819
▁tus 13820
▁benieuwd 13821
ware 13822
▁δικαιώματα 13823
耳朵 13824
▁кабінет 13825
来 13826
▁Central 13827
公眾 13828
▁शेअर 13829
mond 13830
▁xeyli 13831
▁თემაზე 13832
▁atuação 13833
报告 13834
▁pārbau 13835
▁оплату 13836
▁Sepak 13837
tilladelse 13838
▁national 13839
▁Tôn 13840
▁lepszy 13841
▁Česku 13842
乡村 13843
SQL 13844
▁elevada 13845
前 13846
▁ਸਵਾਲ 13847
ვდნენ 13848
ባቸውን 13849
受到 13850
ଗର 13851
▁säilita 13852
excl 13853
واری 13854
oto 13855
998 13856
▁gistingu 13857
现 13858
Oct 13859
▁lugemis 13860
Ver 13861
далеку 13862
시험 13863
▁կարգավորման 13864
រត់ 13865
北美 13866
▁primary 13867
ルーム 13868
▁ئۈز 13869
माझ 13870
▁nepār 13871
关 13872
▁skutecznie 13873
долларын 13874
משרד 13875
▁po 13876
▁Are 13877
impia 13878
Park 13879
дзень 13880
льская 13881
▁Foot 13882
cik 13883
▁beaux 13884
▁Онда 13885
▁አላቸው 13886
lika 13887
ഭ് 13888
▁kaçır 13889
Академ 13890
Angel 13891
Temp 13892
▁naročila 13893
▁инициатива 13894
▁gospodarski 13895
撕 13896
坛 13897
▁mainos 13898
ప్రదేశ్ 13899
▁entdecken 13900
▁fer 13901
▁Sva 13902
Калифорни 13903
▁regula 13904
▁հայերեն 13905
▁Trị 13906
란 13907
▁raznih 13908
▁ekziston 13909
▁distribu 13910
▁intreaga 13911
警 13912
▁Максім 13913
▁commemora 13914
કલ્પ 13915
考 13916
เหลือง 13917
▁gerus 13918
▁Eskort 13919
▁ներքո 13920
bazi 13921
從而 13922
▁harakati 13923
▁ուղարկ 13924
▁bhi 13925
arbeider 13926
▁Դրան 13927
▁coram 13928
▁montaj 13929
▁erősít 13930
ಿರಬೇಕು 13931
▁Referat 13932
ukkaa 13933
Indi 13934
aikata 13935
տին 13936
wia 13937
▁stemmen 13938
▁didn 13939
General 13940
006 13941
▁identidad 13942
▁executive 13943
▁عباد 13944
▁Gen 13945
▁duši 13946
▁lotura 13947
▁asiasta 13948
aro 13949
▁genocid 13950
ಬಹುದ 13951
▁న్యాయ 13952
מנים 13953
気がする 13954
лазе 13955
▁gabim 13956
▁guanyar 13957
▁skratt 13958
ဆူ 13959
ymui 13960
有時候 13961
▁تسم 13962
▁дохода 13963
ицама 13964
そう 13965
▁węd 13966
▁Miele 13967
▁технички 13968
▁független 13969
▁végét 13970
▁dobbiamo 13971
▁leve 13972
Գյումրի 13973
▁دانشجویی 13974
sin 13975
での 13976
▁zayıf 13977
▁özünə 13978
▁родителям 13979
久 13980
▁Kooli 13981
лянд 13982
▁Tomar 13983
технолошк 13984
男性 13985
▁pulis 13986
▁ഹര് 13987
▁خمسة 13988
やす 13989
▁ölüb 13990
vie 13991
▁poderoso 13992
這段 13993
▁окремо 13994
래 13995
▁Associa 13996
▁gyfle 13997
▁facelo 13998
kri 13999
വിശ്വാസ 14000
▁parhaat 14001
▁विना 14002
優化 14003
ΣΑ 14004
▁Bauch 14005
▁emekli 14006
ڑوں 14007
▁propiedades 14008
luokan 14009
szyć 14010
▁araçları 14011
ກວດ 14012
▁Bez 14013
▁hvar 14014
▁pięknie 14015
▁SO 14016
іміздің 14017
▁किम 14018
▁self 14019
▁shirkad 14020
ν 14021
飲んで 14022
▁Stamp 14023
▁చూసిన 14024
▁ଓଡ଼ିଶାର 14025
▁կտր 14026
▁партиясы 14027
▁また 14028
寄り 14029
▁hvide 14030
工作人員 14031
未成年 14032
▁madaniyati 14033
▁lingua 14034
▁dokumentum 14035
ଫର 14036
下班 14037
▁fû 14038
θρησκ 14039
磅 14040
éirigh 14041
เกณฑ์ 14042
▁Alapítvány 14043
일 14044
Ch 14045
▁hirugarren 14046
▁örugg 14047
▁Değer 14048
▁toestemming 14049
▁Norsk 14050
▁측정 14051
arrêter 14052
▁possesso 14053
▁പേടി 14054
▁Bekannt 14055
▁ذڪر 14056
▁Alla 14057
▁központi 14058
▁dialogu 14059
:45 14060
▁arrisku 14061
▁박 14062
▁bet 14063
fl 14064
կետ 14065
되는 14066
غيب 14067
▁معلوماتو 14068
▁nim 14069
▁chùa 14070
▁любые 14071
strahl 14072
▁poses 14073
▁tillögu 14074
▁voelt 14075
▁uyku 14076
▁불 14077
山市 14078
▁xalqı 14079
VIA 14080
▁nastavlja 14081
λαϊκ 14082
▁intre 14083
▁(46) 14084
вшиеся 14085
▁declare 14086
سلطة 14087
ுவதாக 14088
▁humor 14089
ילן 14090
เนื่อง 14091
▁i 14092
ka 14093
▁super 14094
hil 14095
▁ტექსტი 14096
▁miesiąca 14097
gjafa 14098
▁katılma 14099
▁ජාල 14100
▁Технологи 14101
four 14102
tycznego 14103
▁Jaurlaritza 14104
▁mateixos 14105
▁бутон 14106
altezza 14107
pojení 14108
含 14109
koppling 14110
这一次 14111
מיני 14112
▁observer 14113
אוט 14114
დრა 14115
▁корак 14116
▁Camp 14117
ىكى 14118
▁законодателство 14119
▁zo 14120
इन् 14121
万吨 14122
▁והן 14123
纽 14124
图书馆 14125
၂၂ 14126
Occident 14127
丧 14128
▁мектепте 14129
▁Ет 14130
湧 14131
กัด 14132
寶貝 14133
▁прекрасни 14134
rut 14135
ադրբեջանական 14136
हिल्यै 14137
dade 14138
普 14139
▁пристигна 14140
xan 14141
▁slapukai 14142
▁þörf 14143
ran 14144
▁प्रतिष्ठान 14145
했어요 14146
▁hikoya 14147
▁complètement 14148
ƏT 14149
kku 14150
kabili 14151
68 14152
ຄອງ 14153
▁daljnj 14154
▁professor 14155
ຂໍ້ 14156
▁aumentando 14157
▁Phá 14158
▁familiar 14159
▁рукой 14160
▁încet 14161
बृ 14162
▁rodiče 14163
teurs 14164
▁dettaglio 14165
▁bucurie 14166
▁Jawa 14167
बन्दी 14168
▁saturu 14169
Забав 14170
▁Telecom 14171
▁atletas 14172
enbach 14173
nts 14174
ရံ 14175
▁Ekonomik 14176
▁camina 14177
▁العرض 14178
▁okresu 14179
କାଶ 14180
† 14181
jímá 14182
rum 14183
完全に 14184
▁كەنت 14185
▁Obama 14186
ಬಾರ 14187
▁квартира 14188
njwa 14189
▁foglalt 14190
bú 14191
olewa 14192
▁неког 14193
▁lanean 14194
▁mladost 14195
▁Teil 14196
▁ಅಪ್ 14197
▁aylarında 14198
着他 14199
▁குண 14200
▁വാർത്ത 14201
▁അവിട 14202
راڻي 14203
laşmış 14204
▁sədr 14205
▁SMK 14206
▁belgeler 14207
裝潢 14208
阶级 14209
δοση 14210
録 14211
ിറങ്ങിയ 14212
ais 14213
ట్టే 14214
蔵 14215
အနေနဲ့ 14216
▁auctoritate 14217
始まり 14218
▁тийиш 14219
Ử 14220
▁Comercio 14221
▁zelfstandig 14222
▁Eskişehir 14223
内蒙古 14224
▁associé 14225
頭髮 14226
▁სჭირდება 14227
折 14228
තුංග 14229
▁үлдээ 14230
▁lit 14231
▁কমিটির 14232
ปั่น 14233
▁rodinné 14234
فارق 14235
▁детайл 14236
▁φθ 14237
▁gật 14238
posta 14239
ίνοντας 14240
▁mdogo 14241
גרסה 14242
▁94 14243
бежал 14244
▁социјални 14245
▁away 14246
在線 14247
▁Правилник 14248
በዛ 14249
▁Wide 14250
ECI 14251
▁amestec 14252
▁готелі 14253
CD 14254
▁Regelung 14255
प्रमुख 14256
ship 14257
brojne 14258
▁olmayı 14259
▁cha 14260
▁trai 14261
▁inedit 14262
ČA 14263
▁հայերի 14264
▁قىلىن 14265
▁великом 14266
▁hoče 14267
▁нацист 14268
出门 14269
▁creier 14270
▁qilishga 14271
的地方 14272
▁tilfelle 14273
亲自 14274
▁доктора 14275
464 14276
گې 14277
▁színes 14278
▁الإيراني 14279
pare 14280
କଙ୍କ 14281
▁경 14282
侵害 14283
砍 14284
닌 14285
中華民國 14286
ѕ 14287
fit 14288
▁bestätigt 14289
▁FOR 14290
▁vaziyat 14291
▁деңгейде 14292
▁Über 14293
觀點 14294
▁Kuopio 14295
▁नेताओं 14296
伊 14297
bos 14298
▁politikus 14299
< 14300
▁окончания 14301
▁milijonov 14302
▁eng 14303
honneur 14304
▁ראוי 14305
▁ніби 14306
方便 14307
▁матэрыялы 14308
▁Father 14309
▁masker 14310
▁hänelle 14311
▁Словен 14312
ún 14313
▁ഉട 14314
▁આવેલા 14315
▁ավագանու 14316
▁franchise 14317
▁Предмет 14318
▁அறிவ 14319
▁Αθήνας 14320
ସୀ 14321
as 14322
▁مراجع 14323
мындан 14324
▁colectiva 14325
▁Scopri 14326
▁cantitate 14327
貨 14328
จากปรสิต 14329
▁بیچ 14330
▁corre 14331
▁drugem 14332
▁estrena 14333
▁laurea 14334
说 14335
▁tihti 14336
▁vương 14337
▁dĩ 14338
COM 14339
▁faida 14340
的战略 14341
265 14342
▁võimalda 14343
крыть 14344
доста 14345
霊 14346
TIVO 14347
픈 14348
μακρ 14349
ေလွ်ာက္ 14350
▁odio 14351
▁Budějovic 14352
▁Ní 14353
Ź 14354
▁Przy 14355
▁dei 14356
每天 14357
▁emergency 14358
▁vesmír 14359
▁stoletja 14360
▁గతంలో 14361
gne 14362
▁vahoaka 14363
▁krievu 14364
▁tartibi 14365
scri 14366
▁सहमत 14367
▁area 14368
▁Schnee 14369
▁fariĝis 14370
ódó 14371
ngi 14372
schmerz 14373
▁sub 14374
धाम 14375
poca 14376
自拍 14377
▁مسول 14378
заавал 14379
କ୍ଷା 14380
Az 14381
▁bông 14382
برای 14383
▁уақыты 14384
▁mně 14385
▁Glan 14386
▁արժե 14387
成立 14388
▁záver 14389
が好き 14390
▁kultūra 14391
▁panel 14392
handel 14393
▁идеята 14394
質感 14395
▁poszukiwani 14396
▁kamarát 14397
▁era 14398
wikkel 14399
▁የማያ 14400
▁производа 14401
▁ਖੁਸ਼ 14402
▁Παναγ 14403
abil 14404
▁16.30 14405
▁ይፈ 14406
bs 14407
lini 14408
▁новому 14409
▁uboj 14410
▁Buena 14411
▁बॉस 14412
看待 14413
▁varēja 14414
luck 14415
▁Neces 14416
▁ravimi 14417
▁pealt 14418
даецца 14419
화재 14420
▁Jesteś 14421
▁directament 14422
▁басқармасы 14423
セキュリティ 14424
ゾ 14425
稽 14426
▁velkou 14427
랭 14428
😎 14429
▁treballadors 14430
▁(6 14431
友 14432
εχθρ 14433
oba 14434
▁позволяют 14435
▁ነዉ። 14436
▁часопис 14437
là 14438
▁tworzą 14439
▁시절 14440
▁모양 14441
▁שיכול 14442
▁Jean 14443
▁улаз 14444
有人 14445
▁نبوده 14446
ចរ 14447
秘书长 14448
στολή 14449
teraka 14450
▁creador 14451
▁झाड 14452
▁Keller 14453
▁Moet 14454
▁rendszerek 14455
▁раствор 14456
▁hrvatskom 14457
免費 14458
▁स्टेट 14459
▁engelli 14460
▁neo 14461
655 14462
iaethau 14463
電話 14464
զբ 14465
▁подготвен 14466
▁Adam 14467
▁ogłosz 14468
▁Тодор 14469
▁banyo 14470
▁պարտավոր 14471
ዓት 14472
կառ 14473
▁Philosophi 14474
विद्य 14475
ศิริ 14476
▁libera 14477
▁dnevi 14478
▁composición 14479
ējusi 14480
▁Ryg 14481
భాగ 14482
oitetaan 14483
२४ 14484
ung 14485
▁uhka 14486
▁Gitar 14487
aine 14488
▁časom 14489
ូស 14490
▁DELLA 14491
▁მოჰ 14492
hartze 14493
TOA 14494
▁progressive 14495
ącego 14496
▁সমা 14497
▁photo 14498
▁نیت 14499
▁Koke 14500
▁acreditar 14501
ികളെ 14502
▁mark 14503
▁пассажир 14504
▁Ferienwohnung 14505
結 14506
▁gram 14507
됨 14508
▁конструктив 14509
▁bra 14510
▁친절 14511
▁کیجیے 14512
▁legătură 14513
▁98 14514
▁військових 14515
ბდა 14516
▁spi 14517
▁mednarodni 14518
wis 14519
▁এক্স 14520
rā 14521
▁Бъ 14522
▁вибрати 14523
색 14524
пруж 14525
hold 14526
õppe 14527
▁me 14528
▁http 14529
▁privatnosti 14530
▁õhtul 14531
▁жакында 14532
目的 14533
ոստ 14534
▁radosť 14535
▁shooting 14536
▁Прилеп 14537
▁estetic 14538
▁° 14539
simies 14540
Ψ 14541
▁користувача 14542
Global 14543
▁Bhaile 14544
▁rischi 14545
▁የክ 14546
▁කාන්තාවන් 14547
rot 14548
▁dezvoltat 14549
ມັດ 14550
rado 14551
▁considerando 14552
▁უმაღლესი 14553
äisiä 14554
ાક 14555
▁zadky 14556
▁نماد 14557
設定 14558
đe 14559
▁deyilir 14560
▁покушај 14561
▁बनाएर 14562
стоп 14563
▁skil 14564
それだけ 14565
६२ 14566
rium 14567
имся 14568
xu 14569
オリジナル 14570
ພະຍາຍາມ 14571
ໂຮງຮຽນ 14572
銀行 14573
▁Stortinget 14574
에서는 14575
▁լայն 14576
▁health 14577
▁sinyal 14578
▁forventer 14579
▁ehf 14580
▁приложи 14581
▁nombor 14582
▁NATO 14583
δότηση 14584
சோ 14585
▁ወረ 14586
▁offensiv 14587
▁nevnt 14588
보건 14589
▁घु 14590
ésében 14591
▁கொண்டிருந்த 14592
NICI 14593
▁बोलत 14594
▁çekdar 14595
▁herrialde 14596
▁резултате 14597
sprung 14598
▁ohjaa 14599
▁ಲಾಭ 14600
▁תס 14601
وټ 14602
ELT 14603
ravit 14604
面临的 14605
▁бербей 14606
ździ 14607
urbo 14608
▁Aur 14609
▁suuntaan 14610
▁пружи 14611
▁własnym 14612
對於 14613
▁utgave 14614
▁dagana 14615
▁cibi 14616
lenir 14617
youtu 14618
-14 14619
לסי 14620
▁İzle 14621
សូម 14622
▁підприємство 14623
কাৰ 14624
kostnader 14625
姑 14626
급 14627
▁дистриб 14628
maß 14629
させていただきました 14630
▁rifiuti 14631
bürger 14632
IC 14633
▁qëndron 14634
▁mitandao 14635
季 14636
▁Ĉar 14637
▁ek 14638
▁Ericsson 14639
▁Montreal 14640
▁Shumë 14641
▁uvrsti 14642
▁المنتجات 14643
▁MS 14644
ריז 14645
କ୍ଷଣ 14646
倍 14647
▁उम्मीदवार 14648
▁εταιρείας 14649
▁Minulla 14650
▁sabon 14651
▁Mod 14652
▁sepertinya 14653
▁Indah 14654
▁steden 14655
enne 14656
▁recomand 14657
香水 14658
▁wathi 14659
LAR 14660
▁llegada 14661
▁ఆరు 14662
άδ 14663
々に 14664
▁keskel 14665
ருவ 14666
▁borsa 14667
▁мәселелер 14668
▁פּל 14669
vent 14670
▁triple 14671
▁قوية 14672
sca 14673
품 14674
▁abusi 14675
地域の 14676
αρχία 14677
▁Comment 14678
▁ეროვნულ 14679
పోయ 14680
persoon 14681
▁seviyesin 14682
▁söyleyen 14683
▁30% 14684
▁sørger 14685
▁ይታ 14686
▁GPU 14687
ttiä 14688
▁весник 14689
494 14690
▁plače 14691
kaubandus 14692
▁Digital 14693
senteret 14694
Ű 14695
дъх 14696
▁knižn 14697
dinha 14698
▁şansı 14699
ကျောက် 14700
▁duminică 14701
▁speisialta 14702
▁2,5 14703
▁kom 14704
HD 14705
ศิลปิน 14706
▁болашақ 14707
▁прадстаўнікоў 14708
▁arm 14709
청 14710
▁aprobación 14711
▁онези 14712
▁જેવું 14713
omba 14714
▁Орон 14715
▁تنب 14716
▁ھوقۇقى 14717
383 14718
taseme 14719
▁Gull 14720
▁оқып 14721
yal 14722
siehe 14723
is 14724
▁war 14725
ADA 14726
魚 14727
▁suiker 14728
▁изнад 14729
wak 14730
▁yağı 14731
പോയി 14732
Mar 14733
ликова 14734
收入 14735
▁Nachricht 14736
ड्र 14737
に応じて 14738
▁крайна 14739
▁నాని 14740
եւոր 14741
▁Techno 14742
▁රාව 14743
▁Япония 14744
通行 14745
ଚର 14746
▁ունենում 14747
1,6 14748
▁discutir 14749
▁విషయాల 14750
働 14751
▁návrhu 14752
▁one 14753
▁investi 14754
▁melior 14755
▁sztuki 14756
BI 14757
▁Capel 14758
▁încerca 14759
▁කාර් 14760
린 14761
428 14762
だよ 14763
טווח 14764
▁атасы 14765
▁τέλει 14766
▁ettikleri 14767
▁ملازم 14768
第三者 14769
▁پابند 14770
영어 14771
▁fyrri 14772
ඥ 14773
זש 14774
▁အရွင္ 14775
▁pea 14776
GRAD 14777
ລັງ 14778
مملكة 14779
▁Nag 14780
▁مورخ 14781
▁Klang 14782
▁සිටීම 14783
上演 14784
活跃 14785
▁12.30 14786
▁politischen 14787
വേഗ 14788
웅 14789
သွေး 14790
▁Naidheachdan 14791
同時 14792
▁Musik 14793
▁überzeugen 14794
ເຊົ້າ 14795
降 14796
▁déanaí 14797
▁നേതാവ് 14798
手 14799
▁կարողանում 14800
масов 14801
▁hladno 14802
▁dnů 14803
▁Επιτροπής 14804
▁Platon 14805
modellen 14806
バレ 14807
ສະຫະ 14808
nca 14809
ziaren 14810
ראית 14811
▁මරා 14812
进入 14813
▁kallade 14814
或 14815
記 14816
556 14817
▁Cliente 14818
РВ 14819
skar 14820
ЫП 14821
▁ביים 14822
usu 14823
▁horumar 14824
▁думала 14825
▁хүрэх 14826
बिया 14827
▁pozitivno 14828
▁industriel 14829
▁camisa 14830
ឆា 14831
มวย 14832
VA 14833
▁असता 14834
▁tavolo 14835
tes 14836
這邊 14837
न्थ 14838
▁basa 14839
щастлив 14840
▁состава 14841
ๆๆๆ 14842
▁Amma 14843
▁δυνατό 14844
▁aralarında 14845
联 14846
經濟 14847
፩ 14848
74 14849
▁cliente 14850
▁Kh 14851
▁läinud 14852
▁भक्तपुर 14853
yydestä 14854
宝 14855
宣言 14856
ტესტ 14857
▁acquire 14858
เปิดเผย 14859
bila 14860
▁찾을 14861
▁защити 14862
öv 14863
▁زهرا 14864
ക്കുമ്പോള് 14865
看出 14866
▁vorgestellt 14867
습니다 14868
▁elettro 14869
▁paytda 14870
iso 14871
สาระ 14872
▁himla 14873
▁మొదలు 14874
の影響 14875
▁ایسنا 14876
▁Morning 14877
लग 14878
மய 14879
▁موڪل 14880
ለሙ 14881
▁alkalmazott 14882
ပါပဲ 14883
▁فلز 14884
ിച്ചിരുന്നു 14885
hûs 14886
の違い 14887
▁cetak 14888
۴۵ 14889
▁Araç 14890
ένο 14891
▁verecek 14892
ias 14893
ρούν 14894
▁عسکری 14895
▁EOS 14896
* 14897
▁obrigada 14898
netto 14899
▁nhá 14900
ėlis 14901
▁yüklə 14902
ЕЊЕ 14903
ነቶች 14904
▁Haus 14905
ilemaan 14906
1941 14907
▁예 14908
imams 14909
▁управување 14910
▁שמואל 14911
تىڭ 14912
▁fur 14913
ΟΥΣ 14914
▁جزا 14915
▁Lê 14916
▁амьдралын 14917
▁ففي 14918
畜 14919
▁subordin 14920
哼 14921
安慰 14922
快速 14923
contact 14924
▁мерапрыемства 14925
▁vaso 14926
クリーム 14927
丁寧に 14928
mpiä 14929
▁dal 14930
hati 14931
的小 14932
▁Emprego 14933
SU 14934
▁hljóð 14935
2008 14936
▁московск 14937
นิยาย 14938
▁Νέο 14939
▁үүнийг 14940
إزالة 14941
EL 14942
▁Vidal 14943
▁asukoha 14944
富 14945
▁ጤና 14946
▁Մարտի 14947
▁und 14948
▁hold 14949
presedinte 14950
▁hả 14951
▁výše 14952
데 14953
აღიარებ 14954
märkt 14955
▁argentino 14956
你们 14957
▁deri 14958
เมตร 14959
secret 14960
▁herself 14961
1974 14962
Универ 14963
為止 14964
▁salīdzināt 14965
gua 14966
▁istiyoruz 14967
ineadh 14968
作用 14969
mica 14970
കൃ 14971
▁NFC 14972
▁خالص 14973
▁خورده 14974
▁Croc 14975
ի՞ 14976
▁equipo 14977
മായിരുന്ന 14978
håndtering 14979
▁katram 14980
▁Henk 14981
써 14982
▁பிள 14983
聯 14984
צדיק 14985
ibh 14986
管制 14987
▁مناسبی 14988
▁کفش 14989
kro 14990
赛 14991
シェ 14992
овують 14993
▁vest 14994
ბოს 14995
▁Pause 14996
▁Миле 14997
yan 14998
▁fəaliyyətinin 14999
お楽しみ 15000
▁Abhi 15001
หรู 15002
▁dung 15003
▁Partner 15004
▁vanilj 15005
ຕຸ 15006
zek 15007
▁ĐH 15008
拾 15009
▁υπουργείο 15010
競技 15011
糾 15012
膩 15013
適切な 15014
余裕 15015
陈 15016
ТП 15017
▁Pflanzen 15018
run 15019
▁федерального 15020
ל 15021
▁Барселона 15022
ndum 15023
▁skaitā 15024
▁Dating 15025
หัก 15026
زرق 15027
▁gab 15028
▁시각 15029
▁oğlan 15030
陳 15031
▁இவை 15032
שמת 15033
▁הקבוצה 15034
▁Valitse 15035
נופש 15036
▁pra 15037
▁mele 15038
lain 15039
▁bazo 15040
▁probablemente 15041
వంతు 15042
IL 15043
▁permitido 15044
▁ball 15045
▁Jasmin 15046
▁түзүү 15047
▁Chuck 15048
לינג 15049
मेट 15050
হাজ 15051
tou 15052
▁Dobre 15053
คุณแม่ 15054
▁تمدن 15055
系の 15056
▁شویم 15057
ходила 15058
computer 15059
▁kasvoi 15060
fwyd 15061
▁주로 15062
▁nëntor 15063
▁reading 15064
installazione 15065
▁chia 15066
▁तिथि 15067
kierros 15068
指引 15069
▁Mana 15070
▁приступа 15071
▁составлен 15072
២១ 15073
▁származ 15074
▁հիմնադրամի 15075
▁równie 15076
菇 15077
ผา 15078
amivel 15079
กระตุ้น 15080
▁j 15081
rra 15082
民進黨 15083
▁تنازع 15084
öt 15085
▁πήγα 15086
▁חזרה 15087
永 15088
▁лічыць 15089
bert 15090
▁trifft 15091
▁ascuns 15092
▁ndarë 15093
▁putovanja 15094
▁Maklum 15095
询问 15096
▁baizik 15097
töötle 15098
如果没有 15099
▁Dũng 15100
izëm 15101
nja 15102
исани 15103
の声 15104
▁Phân 15105
▁સત્ય 15106
Es 15107
▁dificult 15108
▁മനസ്സില് 15109
▁אישה 15110
mati 15111
EGI 15112
媒体 15113
▁సమస్యలు 15114
▁මිනිස් 15115
rými 15116
▁vyroben 15117
ποδ 15118
itti 15119
▁nè 15120
▁zināšanas 15121
uš 15122
ッと 15123
▁nur 15124
Word 15125
சார 15126
▁Tweede 15127
785 15128
▁Эмне 15129
▁traditionelle 15130
▁Candy 15131
ບາຍ 15132
▁titulo 15133
▁servi 15134
kondu 15135
▁looking 15136
רנ 15137
૧૪ 15138
בוס 15139
ستعمل 15140
▁సెట్ 15141
真理 15142
▁billetter 15143
▁It 15144
ништва 15145
ាញ់ 15146
根本不 15147
γερμαν 15148
▁배 15149
বার্ষিক 15150
针对性 15151
▁izravn 15152
rau 15153
重庆时时彩 15154
▁ဘုရားသခင် 15155
oor 15156
อวัยวะเพศชาย 15157
▁kateqoriya 15158
fun 15159
▁Enquanto 15160
▁ly 15161
▁महासचिव 15162
▁su 15163
ria 15164
▁shartnoma 15165
▁Surya 15166
▁хліб 15167
▁למנוע 15168
▁81 15169
專 15170
▁우려 15171
▁jaučia 15172
▁Life 15173
▁Dadurch 15174
rish 15175
ဖြစ်ကြောင်း 15176
▁située 15177
▁патрон 15178
▁נושאים 15179
▁convins 15180
গুলোর 15181
▁ואל 15182
自己 15183
▁Ent 15184
เชื่อมต่อ 15185
▁пунктов 15186
▁TU 15187
▁ämnen 15188
TIONS 15189
▁שירותים 15190
▁וחצי 15191
ອັດ 15192
▁GNU 15193
▁davantage 15194
▁Teacher 15195
▁yaklaşım 15196
▁தேடி 15197
的大 15198
▁Miel 15199
▁tavoite 15200
▁zlasti 15201
ברר 15202
▁методолог 15203
ጠነ 15204
ิ้ง 15205
▁حملة 15206
▁settori 15207
korban 15208
▁ಹೊತ್ತ 15209
▁pred 15210
▁mazu 15211
▁Mala 15212
▁ସାମ 15213
▁ငါ့ 15214
niz 15215
▁смысла 15216
▁پدیده 15217
nul 15218
▁hilbijartinê 15219
ในปัจจุบัน 15220
▁sarf 15221
ことだ 15222
geladen 15223
ੈਂਟ 15224
▁პრინცი 15225
buk 15226
▁שטו 15227
▁box 15228
וניות 15229
prys 15230
▁gebed 15231
▁követel 15232
으로 15233
gada 15234
初心者 15235
專注 15236
∀ 15237
shin 15238
뒷 15239
▁langfristig 15240
▁Njihov 15241
▁어머니 15242
▁Принцип 15243
▁개 15244
▁أمريكي 15245
エステ 15246
แบน 15247
▁asioista 15248
▁ആവശ്യപ്പെട്ട 15249
▁услугите 15250
▁ළමා 15251
▁analogi 15252
▁saddex 15253
TIF 15254
▁Fahrrad 15255
▁Recu 15256
▁weiss 15257
▁Mascus 15258
economic 15259
▁تروریستی 15260
▁Kau 15261
▁aluminio 15262
▁obvezni 15263
EC 15264
حسین 15265
▁قهرمانی 15266
avtale 15267
gaande 15268
▁излаз 15269
獨家 15270
▁vaksin 15271
▁Féin 15272
▁Skil 15273
协作 15274
▁panasz 15275
▁ಕರೆಯ 15276
国家安全 15277
▁клиентите 15278
▁الأمة 15279
хаб 15280
▁menggantikan 15281
طرد 15282
▁Romania 15283
▁коюу 15284
▁Alpin 15285
▁בהן 15286
▁Opera 15287
effektiv 15288
▁сыйла 15289
▁મેળવી 15290
歐美 15291
▁koppel 15292
台上 15293
▁vairākas 15294
▁teniu 15295
tish 15296
▁الأسد 15297
▁bewaar 15298
▁Con 15299
Soft 15300
ַל 15301
▁കുട്ടികളുടെ 15302
▁верну 15303
யிலும் 15304
均衡 15305
灵魂 15306
鑑 15307
▁tawag 15308
uga 15309
綁 15310
钢铁 15311
veiði 15312
隙 15313
アジア 15314
လျှောက် 15315
▁rapport 15316
▁piano 15317
有关 15318
▁chi 15319
wah 15320
▁препятств 15321
▁Trátase 15322
▁ameaça 15323
单位 15324
▁교환 15325
▁Triều 15326
▁pelancong 15327
rti 15328
機器人 15329
▁gudanar 15330
▁nereikia 15331
▁посочени 15332
lal 15333
▁extremamente 15334
▁معطل 15335
▁მასთან 15336
▁digelar 15337
▁über 15338
ោក 15339
funksjon 15340
自动化 15341
▁представляют 15342
▁Khi 15343
▁KBS 15344
▁природних 15345
▁Historic 15346
▁intreg 15347
เรื่องการ 15348
▁баруун 15349
ారావు 15350
väestö 15351
▁Clan 15352
АЊА 15353
heit 15354
▁రాసిన 15355
üm 15356
網購 15357
▁അത്തര 15358
普通に 15359
▁ochrane 15360
▁حبيب 15361
RTI 15362
▁kožu 15363
▁podvod 15364
▁just 15365
llu 15366
东京 15367
▁doktrin 15368
▁hentet 15369
▁причината 15370
▁postare 15371
រីក 15372
فوض 15373
▁гэв 15374
매 15375
▁अल्प 15376
▁contamos 15377
alueella 15378
▁штамп 15379
▁puisqu 15380
lägga 15381
话 15382
東方 15383
▁udhëtim 15384
▁Registro 15385
ović 15386
▁앞에 15387
ボード 15388
▁lustr 15389
leyebilirsiniz 15390
» 15391
▁sit 15392
北京时间 15393
▁qurilish 15394
▁రేప 15395
▁vacation 15396
▁zaude 15397
蹟 15398
vrede 15399
Jo 15400
▁Respublikasında 15401
▁übrig 15402
脊 15403
臓 15404
百分之 15405
淀 15406
クリニック 15407
▁бъдеще 15408
อ่าง 15409
군 15410
▁충분히 15411
빵 15412
pośród 15413
▁short 15414
▁Cumartesi 15415
11 15416
속 15417
wu 15418
ទូទៅ 15419
▁keyword 15420
反复 15421
▁szórakoz 15422
▁bajenn 15423
▁Colin 15424
▁እስር 15425
cep 15426
▁유명한 15427
▁присутни 15428
▁stol 15429
▁वर्षी 15430
▁обећа 15431
▁مبارك 15432
安置 15433
▁Coral 15434
▁Akses 15435
▁головой 15436
:20 15437
▁pastra 15438
▁المناسبة 15439
▁источников 15440
og 15441
您的 15442
▁сууц 15443
▁Clare 15444
▁någonting 15445
▁vivo 15446
▁firmalar 15447
维 15448
▁situacijo 15449
▁universiteit 15450
▁rendőrség 15451
▁여부 15452
▁Frost 15453
▁Наші 15454
RI 15455
▁арман 15456
lok 15457
Google 15458
تصميم 15459
වීම් 15460
▁1868 15461
▁ആദ്യമായി 15462
이나 15463
▁Слово 15464
▁snovi 15465
▁Доро 15466
▁навео 15467
oo 15468
▁emision 15469
▁плац 15470
adevar 15471
▁добили 15472
▁Axborot 15473
ಶೆ 15474
เป็นสมาชิก 15475
▁काठमाडौ 15476
唤 15477
鬱 15478
▁urush 15479
▁दिनुहोस 15480
án 15481
揉 15482
വത് 15483
ষণ 15484
∼ 15485
gemeinschaft 15486
ሲኖዶስ 15487
产 15488
▁Suid 15489
经营 15490
▁situation 15491
▁pengusaha 15492
附加 15493
▁minučių 15494
▁gospodarstva 15495
▁Horrela 15496
▁États 15497
▁Enkelt 15498
ในโรคสะเก็ดเงิน 15499
▁Hukuk 15500
▁2.0 15501
▁розмірі 15502
▁Üye 15503
ពោះ 15504
▁ফলে 15505
борд 15506
runu 15507
▁Vö 15508
底下 15509
ക്സി 15510
▁socker 15511
哈 15512
7,9 15513
પાન 15514
škog 15515
zu 15516
▁열 15517
▁მუნიციპალიტეტის 15518
၀န္ႀကီး 15519
▁Politiker 15520
▁okazało 15521
թուրքական 15522
98 15523
▁sreča 15524
▁ଆଶା 15525
▁Bin 15526
imizə 15527
ೇಶನ್ 15528
തിനുള്ള 15529
▁rischia 15530
▁miałem 15531
rinho 15532
nettsteder 15533
ffe 15534
uojami 15535
▁značaja 15536
患者 15537
ڈز 15538
▁Verkko 15539
malısınız 15540
ക്കൊപ്പം 15541
▁reag 15542
ാകുന്ന 15543
որդի 15544
▁şəkil 15545
-11 15546
亚马逊 15547
撰 15548
מכירות 15549
სახე 15550
элдэг 15551
あくまで 15552
▁totalitar 15553
仕組み 15554
▁ոլորտի 15555
ລະອຽດ 15556
▁αδελφ 15557
最新 15558
ធម៌ 15559
ggi 15560
▁Celsius 15561
▁commitment 15562
▁izmaksas 15563
tés 15564
稱 15565
すると 15566
▁varstvo 15567
elles 15568
▁ордуна 15569
権利 15570
käytäntö 15571
▁भर्ना 15572
iana 15573
▁Qirg 15574
开展 15575
▁douleur 15576
▁heilbrigðis 15577
▁البريطانية 15578
sztrál 15579
▁mul 15580
▁pecado 15581
өсөн 15582
▁vieux 15583
▁maître 15584
▁Donald 15585
▁холодно 15586
▁pince 15587
خيل 15588
▁Legii 15589
▁Instant 15590
брид 15591
කැ 15592
correre 15593
▁Продава 15594
Profes 15595
▁cewar 15596
じ 15597
▁Bring 15598
▁законы 15599
NX 15600
▁אורח 15601
тпай 15602
▁piešķir 15603
▁apei 15604
▁Först 15605
▁den 15606
▁лежи 15607
ነሣ 15608
がよく 15609
始めて 15610
æfing 15611
▁średnio 15612
一向 15613
▁شروعات 15614
被称为 15615
▁ആന 15616
享受 15617
▁киргизүү 15618
ಮಾಡ 15619
▁සැල 15620
സിനെ 15621
▁үйлчилгээг 15622
▁Dari 15623
diskut 15624
▁tecken 15625
▁evropski 15626
-7 15627
চক 15628
另外 15629
ക്ഷന് 15630
▁about 15631
spec 15632
▁அவள 15633
▁бібліотека 15634
▁glo 15635
宰 15636
▁이용할 15637
ናችን 15638
▁populum 15639
off 15640
ydi 15641
쌓 15642
▁njëjtën 15643
နည္းပညာ 15644
▁Pingback 15645
▁נעשה 15646
isko 15647
schläge 15648
ý 15649
▁Istor 15650
这句话 15651
▁gətirib 15652
▁πάρα 15653
bt 15654
▁підвищен 15655
▁насилие 15656
берене 15657
▁진 15658
▁میکرد 15659
▁пријава 15660
▁CONTRA 15661
▁معينة 15662
▁APEC 15663
▁athugasemdir 15664
▁klassieke 15665
▁الفوز 15666
▁سالگی 15667
▁સમા 15668
▁уряду 15669
▁המאה 15670
▁желба 15671
ud 15672
销售 15673
yti 15674
्याची 15675
▁ähnliche 15676
mik 15677
насьці 15678
Ti 15679
▁Membe 15680
cula 15681
▁ସର୍ 15682
▁కాగా 15683
Za 15684
ttivat 15685
▁ਮਿਲੀ 15686
側の 15687
649 15688
▁مسیح 15689
GRAFI 15690
▁מסע 15691
vita 15692
▁유리 15693
▁Fleisch 15694
rinko 15695
▁њихова 15696
空気 15697
▁Singapur 15698
▁отац 15699
▁култури 15700
KÁ 15701
▁Makro 15702
ดีที่สุด 15703
擋 15704
飘 15705
細菌 15706
孤独 15707
阁 15708
▁govoriti 15709
กระชับ 15710
▁Chọn 15711
▁result 15712
ରାଷ୍ଟ୍ର 15713
▁beskæftige 15714
system 15715
▁envoyé 15716
▁יורק 15717
▁акцыі 15718
▁확장 15719
許多人 15720
riedade 15721
▁varia 15722
▁dogodki 15723
quart 15724
▁Χαρ 15725
▁لأي 15726
▁Senegal 15727
▁Filistin 15728
▁öffentliche 15729
▁راضی 15730
▁دفاعی 15731
去 15732
▁končí 15733
oon 15734
hiana 15735
▁Район 15736
uer 15737
אנק 15738
ၾကြ 15739
▁situationer 15740
▁kryetar 15741
als 15742
▁Paš 15743
անքներ 15744
▁വേണ 15745
סיקה 15746
▁நிர 15747
лбай 15748
▁qurumları 15749
▁تقريب 15750
▁Miss 15751
ացու 15752
▁chocolat 15753
▁bì 15754
▁акумул 15755
ымыздың 15756
▁opisuje 15757
புர 15758
▁Line 15759
SOP 15760
teltiin 15761
▁1840 15762
បុរស 15763
ຂອງຕົນ 15764
ಡಿಸಿ 15765
ner 15766
ერების 15767
▁мөөнөт 15768
▁indicato 15769
▁mahsulotlari 15770
▁kendu 15771
▁κομμάτι 15772
542 15773
շխ 15774
販售 15775
难题 15776
特斯拉 15777
tafuta 15778
倫敦 15779
厳しい 15780
ကမ္ဘာ 15781
▁Qa 15782
▁Koonfur 15783
ፔ 15784
▁konferencji 15785
rá 15786
▁vroeë 15787
▁since 15788
▁እግር 15789
▁Театр 15790
▁נכתב 15791
▁последици 15792
▁sulle 15793
▁sesudah 15794
▁instructions 15795
▁размещения 15796
▁পথে 15797
▁Pyaar 15798
राख 15799
πραγματοποιήθηκε 15800
cent 15801
▁elää 15802
▁úkol 15803
▁நினைக்க 15804
▁Чаму 15805
▁সকালে 15806
▁طاهر 15807
▁νησί 15808
வதி 15809
z 15810
son 15811
schütz 15812
▁правду 15813
▁οικο 15814
ಲಯ 15815
▁қуат 15816
▁Поповић 15817
ଡୁ 15818
використовуються 15819
▁සති 15820
▁መቀ 15821
▁divisa 15822
බර් 15823
▁Abram 15824
▁Բացի 15825
价格 15826
▁პროდუქტი 15827
▁tah 15828
▁broses 15829
▁urme 15830
ოდნენ 15831
▁үх 15832
▁permission 15833
လိုက္ပါ 15834
▁dro 15835
անյան 15836
▁ovo 15837
तौ 15838
瞬 15839
▁habitant 15840
continuare 15841
ಂದ್ರ 15842
▁SU 15843
▁ajude 15844
▁невероятн 15845
sida 15846
标签 15847
熙 15848
▁júna 15849
湛 15850
لەن 15851
▁Jest 15852
cur 15853
▁veřejné 15854
ida 15855
▁Labem 15856
▁hayırlı 15857
фикации 15858
其實 15859
外表 15860
▁लोकांना 15861
▁ଆପଣଙ୍କୁ 15862
hé 15863
qiniso 15864
лёг 15865
ła 15866
uso 15867
▁galerii 15868
▁ποιος 15869
▁ترین۔ 15870
အသုံး 15871
ole 15872
▁léi 15873
▁преимуществ 15874
▁양 15875
▁Lån 15876
▁మార్గ 15877
ıyorlar 15878
ισμών 15879
▁market 15880
iter 15881
konkurenčn 15882
▁ਸਹਿ 15883
她 15884
798 15885
▁tavoin 15886
რეზ 15887
анасы 15888
▁Region 15889
▁Ende 15890
WF 15891
rensning 15892
1973 15893
▁besterik 15894
ουτ 15895
▁Santiago 15896
▁galā 15897
▁fyw 15898
▁любить 15899
不可 15900
▁planteja 15901
国土 15902
▁poprawia 15903
しまって 15904
ari 15905
よく 15906
tage 15907
▁skjedde 15908
▁Çocuklar 15909
▁polskie 15910
▁гени 15911
▁İnstitutu 15912
▁sna 15913
▁soyqırımı 15914
집 15915
gie 15916
ิ้ล 15917
hely 15918
nom 15919
▁giver 15920
▁ایستاد 15921
▁efterfølgende 15922
7,6 15923
▁کانادا 15924
ർക്ക് 15925
ಕೊಳ್ಳಿ 15926
▁рамка 15927
sser 15928
▁Дакле 15929
▁tired 15930
▁гдје 15931
▁hoffen 15932
อาหารเสริม 15933
▁predstavili 15934
aufnahme 15935
punkten 15936
▁ලිපියක් 15937
ньняў 15938
▁Cohen 15939
▁Erkenntnis 15940
▁අවම 15941
션 15942
▁resiko 15943
▁motív 15944
▁Začni 15945
▁oz 15946
得分 15947
▁savaitė 15948
▁professionel 15949
▁inspir 15950
▁XXL 15951
▁ракета 15952
ತೆಯನ್ನು 15953
▁아는 15954
φί 15955
中秋 15956
▁ಕಟ್ಟಿ 15957
▁Адзін 15958
▁кісі 15959
▁materiały 15960
Bi 15961
etta 15962
▁харуул 15963
▁Ramoso 15964
▁AP 15965
▁бъдете 15966
▁ባለቤት 15967
▁átlagos 15968
üüd 15969
▁začeli 15970
恩 15971
▁फैल 15972
▁Trykk 15973
▁копира 15974
ကြက္ 15975
▁моди 15976
▁cujus 15977
▁Асан 15978
▁immediate 15979
▁doriti 15980
▁r 15981
▁القادر 15982
▁gastar 15983
ประสบ 15984
ויקיפדיה 15985
▁Kaymakam 15986
▁Xüsusi 15987
sled 15988
▁Beautiful 15989
▁aurkezpen 15990
▁rond 15991
KIP 15992
j 15993
して 15994
▁부르 15995
▁pauvre 15996
▁Amazing 15997
對外 15998
▁آٹھ 15999
▁കാണൂ 16000
ປະເພດ 16001
▁Давайте 16002
▁članice 16003
ാലോ 16004
▁Lazio 16005
▁puke 16006
▁Stockholm 16007
典型的 16008
▁beweeg 16009
▁실 16010
就已经 16011
▁Boshqa 16012
▁활동을 16013
ారో 16014
20° 16015
▁ליום 16016
▁szczegół 16017
▁views 16018
一體 16019
▁Rebel 16020
▁susțin 16021
▁dubbi 16022
▁ऋत 16023
▁Kafe 16024
▁Pur 16025
▁consider 16026
ברג 16027
▁wychodzi 16028
pala 16029
▁żoł 16030
chten 16031
ദേവ 16032
▁মহ 16033
▁wakazi 16034
פסיכו 16035
▁folga 16036
▁zápis 16037
त्रिक 16038
▁madh 16039
▁cursuri 16040
گال 16041
▁πιστεύ 16042
▁Maa 16043
צרכים 16044
äl 16045
▁açılışı 16046
▁etxean 16047
öntö 16048
▁blízko 16049
疊 16050
霞 16051
咒 16052
흔 16053
Донбас 16054
สตรี 16055
▁Məcəllə 16056
▁Raj 16057
▁kur 16058
အခမဲ့ 16059
▁φοιτ 16060
▁Abdul 16061
▁Public 16062
▁گرافیک 16063
▁müzakirələr 16064
▁zachwyc 16065
▁némi 16066
▁අග් 16067
ಾಗಿದ್ದು 16068
▁конверт 16069
▁hevalê 16070
▁done 16071
▁lid 16072
Ան 16073
lán 16074
大臣 16075
▁трактор 16076
▁ეკონომიკური 16077
▁tudott 16078
來電 16079
▁Afrikaner 16080
▁vietnam 16081
▁jaunimo 16082
ástica 16083
▁fogyaszt 16084
她的 16085
verat 16086
▁dell 16087
ുണ്ടെന്ന 16088
▁Samtidigt 16089
▁טאג 16090
▁ಅವು 16091
▁apporte 16092
亮 16093
に対し 16094
▁Слов 16095
행사 16096
ώτη 16097
▁אונדזער 16098
▁боре 16099
▁հին 16100
▁fai 16101
ፖለቲካ 16102
geschrieben 16103
ıldığını 16104
▁mag 16105
▁qayd 16106
▁oblike 16107
పాటు 16108
▁kombëtar 16109
▁ministerija 16110
▁وترك 16111
liwość 16112
▁včeraj 16113
虑 16114
幽默 16115
▁государственно 16116
▁Gul 16117
スマートフォン 16118
仪器 16119
喫 16120
债券 16121
疑惑 16122
レストラン 16123
쇄 16124
▁شۇنداق 16125
ဒဏ် 16126
▁Tiffany 16127
▁fantástico 16128
멍 16129
မော် 16130
▁LI 16131
αίρεση 16132
年的 16133
▁заходу 16134
▁umfassende 16135
▁περιόδου 16136
▁Kaksi 16137
っ 16138
▁xavf 16139
▁изучава 16140
rab 16141
▁loodud 16142
▁Válasz 16143
▁ბუნებრივი 16144
▁падыход 16145
át 16146
▁experience 16147
▁ئەمەل 16148
▁suplimentare 16149
בוב 16150
koloni 16151
期間 16152
တွေ့ဆုံ 16153
ksana 16154
biór 16155
プ 16156
ങ 16157
Τα 16158
▁KI 16159
▁пипер 16160
யாள 16161
抵达 16162
סמים 16163
atur 16164
▁lähesty 16165
016 16166
▁spojení 16167
▁հոգե 16168
感じ 16169
Caput 16170
▁dangerous 16171
▁Prabu 16172
▁ST 16173
305 16174
lyasiya 16175
▁partide 16176
▁אזרחי 16177
本届 16178
IMP 16179
▁Emme 16180
▁testar 16181
▁Part 16182
ούσα 16183
ševal 16184
▁نوین 16185
▁નોટ 16186
▁prilika 16187
办 16188
CH 16189
t 16190
▁om 16191
電影 16192
ਹੋ 16193
தாம் 16194
适用于 16195
貨幣 16196
▁οφείλ 16197
ເທິງ 16198
▁Thompson 16199
▁amlwg 16200
សរុប 16201
▁Most 16202
▁гудамж 16203
ches 16204
▁cumplimiento 16205
领域 16206
▁વિદેશ 16207
▁29 16208
▁едновременно 16209
▁árbore 16210
LO 16211
▁líbí 16212
▁bilimsel 16213
有效地 16214
▁Afriko 16215
▁tilpasset 16216
▁πολιτικού 16217
▁šādi 16218
flam 16219
基於 16220
▁rezervēt 16221
▁btw 16222
▁tabletas 16223
lari 16224
▁maz 16225
соедини 16226
▁suši 16227
▁Portal 16228
海外 16229
▁rappelle 16230
▁طبی 16231
patient 16232
▁Coupe 16233
▁한글 16234
技术和 16235
▁Срок 16236
allergi 16237
▁својом 16238
anan 16239
Ер 16240
ಿದಾಗ 16241
▁დოლარი 16242
▁hozzájárul 16243
кард 16244
량이 16245
▁prawdziwe 16246
era 16247
▁хаана 16248
▁থাকতে 16249
chan 16250
အမည် 16251
▁위기 16252
▁ਸ਼ਾਹ 16253
市區 16254
▁rahvusvahelise 16255
ଵ 16256
డితే 16257
▁sviði 16258
▁zmene 16259
ところ 16260
זאַ 16261
▁chlor 16262
▁Promotion 16263
американ 16264
▁Karl 16265
bewusst 16266
▁relata 16267
▁yönel 16268
▁Antall 16269
▁classico 16270
经贸 16271
侠 16272
▁rõhu 16273
懷疑 16274
減肥 16275
▁представяне 16276
盾 16277
ແສງ 16278
บัณฑิต 16279
jun 16280
▁impossibile 16281
ေပမယ့္ 16282
▁নিয়ম 16283
▁Password 16284
▁Sabadell 16285
▁aðgengi 16286
▁Dmitri 16287
▁Lietuvių 16288
Die 16289
▁Sesuai 16290
▁tərəfdaş 16291
จิตใจ 16292
▁cúpla 16293
▁загальної 16294
▁PE 16295
▁مدنی 16296
▁campuran 16297
▁nihče 16298
vær 16299
▁бизнесмен 16300
fulltrúa 16301
▁Þ 16302
▁kutafuta 16303
تأثر 16304
▁modul 16305
主人公 16306
בדיקת 16307
oqibat 16308
յական 16309
製 16310
▁spalva 16311
НИКА 16312
1964 16313
▁Маз 16314
▁sokeri 16315
497 16316
无限 16317
师 16318
▁plafond 16319
NUN 16320
មន 16321
▁процесів 16322
ännyt 16323
▁પ્રકાર 16324
飯店 16325
ജ്ഞാന 16326
▁thâm 16327
▁Сами 16328
▁Cur 16329
جتمع 16330
▁obdar 16331
Ga 16332
odpor 16333
▁հայր 16334
CSI 16335
を行います 16336
ອາດຈະ 16337
▁koža 16338
tel 16339
▁Somaliland 16340
ঘাত 16341
▁პერიოდი 16342
通常 16343
▁skryt 16344
▁තොරව 16345
▁जप 16346
▁kn 16347
▁vuelo 16348
liq 16349
▁lengan 16350
▁సమావేశ 16351
▁жеңил 16352
▁tenkte 16353
ישו 16354
▁individuellen 16355
▁замест 16356
托 16357
一会儿 16358
疯 16359
久しぶり 16360
فيسبوك 16361
მართლმადიდებ 16362
wir 16363
的问题 16364
▁հույս 16365
gui 16366
美術館 16367
▁δήλωση 16368
▁menangkap 16369
sies 16370
ivat 16371
מצרים 16372
▁funcionalidad 16373
▁lõuna 16374
▁හමු 16375
nite 16376
節能 16377
▁montras 16378
▁caruur 16379
▁Odgovor 16380
售價 16381
▁Nasir 16382
▁içeriği 16383
▁кожи 16384
ล็อก 16385
▁integrada 16386
si 16387
▁Zahar 16388
▁arbres 16389
▁الذكر 16390
mål 16391
种 16392
▁dalalka 16393
▁doprava 16394
bab 16395
▁срца 16396
▁finansijsk 16397
▁With 16398
▁RGB 16399
▁Fahrer 16400
estudiant 16401
ሄዱ 16402
▁પકડ 16403
▁Credo 16404
▁establi 16405
Мал 16406
▁sad 16407
ulu 16408
मंत्र 16409
acha 16410
viisi 16411
лууд 16412
ינסט 16413
ながら 16414
▁છોડી 16415
كذب 16416
比特币 16417
685 16418
ۇنداق 16419
▁Ollscoil 16420
▁Técnico 16421
▁disc 16422
gara 16423
発 16424
▁Road 16425
덜 16426
ঐ 16427
▁toimunud 16428
⠀ 16429
apos 16430
▁знайшли 16431
ffa 16432
▁זמני 16433
▁Sama 16434
▁alterações 16435
▁obviously 16436
▁εμβ 16437
而是 16438
▁Einkommen 16439
ខាងមុខ 16440
▁vali 16441
▁Orice 16442
čan 16443
▁עמד 16444
rati 16445
MOMO 16446
▁종교 16447
▁песні 16448
▁sola 16449
▁Specialist 16450
ούπολη 16451
▁Rusko 16452
の流れ 16453
▁مخالفین 16454
дарынын 16455
창원 16456
হান 16457
方も多い 16458
▁fallait 16459
受け入れ 16460
ตึก 16461
▁అనుమతి 16462
್ವಾ 16463
▁kompetisi 16464
lamaq 16465
बस 16466
start 16467
日式 16468
▁manteniment 16469
ագրության 16470
▁egyszerre 16471
比如说 16472
▁vzduch 16473
▁foi 16474
▁ഏത് 16475
▁обмеження 16476
boende 16477
▁Црној 16478
ङ्गा 16479
nošenje 16480
kod 16481
אָנ 16482
duizend 16483
émission 16484
良い 16485
▁kraujo 16486
ข้า 16487
ès 16488
▁fiz 16489
提及 16490
ေဖာ္ျပ 16491
▁Aga 16492
леныя 16493
▁полов 16494
▁meio 16495
▁الدولار 16496
▁उपस्थिति 16497
kon 16498
▁José 16499
ómico 16500
▁33% 16501
混乱 16502
方が良い 16503
批評 16504
λπ 16505
peri 16506
▁1867 16507
氣候 16508
▁живут 16509
▁Bealtaine 16510
▁Privātum 16511
控 16512
▁gyventojai 16513
▁room 16514
▁Edi 16515
▁Mısır 16516
▁Ett 16517
▁vale 16518
▁mitjà 16519
▁lalàna 16520
▁چڑھ 16521
ł 16522
▁chuột 16523
▁చిత్రాన్ని 16524
▁plaukų 16525
▁rang 16526
▁ζητά 16527
▁اشغال 16528
▁record 16529
▁iekārtas 16530
▁raspored 16531
▁Pay 16532
▁Doğan 16533
▁kiusa 16534
дић 16535
83 16536
▁cando 16537
▁सतत 16538
▁Power 16539
possibili 16540
▁Saada 16541
▁элге 16542
حزن 16543
啦 16544
▁mani 16545
▁naravi 16546
내기 16547
▁dráh 16548
▁Yog 16549
ვებული 16550
▁küsimuste 16551
▁Iroda 16552
▁nevz 16553
▁blend 16554
effect 16555
ೀಶ್ 16556
бағ 16557
族 16558
▁plo 16559
▁kuusi 16560
貫 16561
рошен 16562
▁konularda 16563
▁Dhar 16564
▁peso 16565
પતિ 16566
431 16567
▁гром 16568
▁anfon 16569
较 16570
اجتماع 16571
▁okuloj 16572
▁MAIS 16573
▁ມານີ 16574
四個 16575
▁reggeli 16576
▁axudar 16577
▁Praia 16578
nasib 16579
គិត 16580
волод 16581
闘 16582
fjöl 16583
ອະນຸຍາດ 16584
▁Bild 16585
▁fhèin 16586
▁Para 16587
▁Abu 16588
▁Xesús 16589
為了 16590
什麼 16591
▁ringrazia 16592
▁publicznych 16593
▁독립 16594
▁denúncia 16595
gefordert 16596
▁py 16597
IM 16598
▁موٹر 16599
▁Kvinnor 16600
▁používaním 16601
AZ 16602
▁ve 16603
ተለያየ 16604
▁grave 16605
▁Murray 16606
▁samboer 16607
▁access 16608
▁dauguma 16609
▁Teach 16610
と思われる 16611
▁бібліотеки 16612
層次 16613
مرض 16614
हिन 16615
奥 16616
▁dərəcədə 16617
tunnus 16618
▁Kurd 16619
ಗತ 16620
АСЫ 16621
▁štít 16622
▁armastus 16623
▁Phố 16624
реакци 16625
▁hacemos 16626
వాళ్ళ 16627
▁உடன் 16628
▁aktyor 16629
▁സിറ്റി 16630
▁imigr 16631
endi 16632
列車 16633
▁начиная 16634
號碼 16635
durchschnittlich 16636
▁그것이 16637
▁договором 16638
▁bacaan 16639
达到 16640
▁Helge 16641
ଦ୍ୱ 16642
سىلەر 16643
劇 16644
▁creştere 16645
ရွိေန 16646
Y 16647
▁qalır 16648
▁lajmi 16649
iștii 16650
▁Juni 16651
яння 16652
▁padidin 16653
▁świetny 16654
બ્રા 16655
▁அமைப்ப 16656
▁gennemføre 16657
鸿 16658
▁anlattı 16659
პირისპირ 16660
▁ddigwydd 16661
aménagement 16662
kaa 16663
ata 16664
▁rettigheter 16665
ทั่วไทย 16666
ház 16667
സിലെ 16668
▁BI 16669
▁informática 16670
▁ändring 16671
מקס 16672
按照 16673
▁گذشتہ 16674
▁Administração 16675
▁Mara 16676
▁કરીએ 16677
▁vakava 16678
▁taqdir 16679
網路 16680
▁ಅಮ 16681
မြစ် 16682
▁opis 16683
臺北 16684
▁විභාග 16685
ැහැ 16686
vest 16687
▁Somaliya 16688
▁вантаж 16689
故事 16690
▁walked 16691
▁परिषदे 16692
▁verejné 16693
EHU 16694
▁progresiv 16695
▁werin 16696
▁spille 16697
Сер 16698
▁دادم 16699
将 16700
▁Sevgili 16701
南非 16702
▁هواپیمای 16703
合一 16704
▁sjove 16705
▁muzikë 16706
deki 16707
▁szellemi 16708
觉得自己 16709
▁funcionament 16710
▁těla 16711
▁ustedes 16712
PR 16713
▁ярко 16714
▁Myth 16715
▁prečíta 16716
гчдын 16717
็ป 16718
▁halusi 16719
PAK 16720
▁kurzu 16721
姊 16722
कश्मीर 16723
▁norint 16724
絞 16725
gūst 16726
mar 16727
ปทุมธานี 16728
ፓርላማ 16729
▁three 16730
▁money 16731
▁բնակչության 16732
▁leva 16733
ampianatra 16734
資産 16735
▁विशिष्ट 16736
[24] 16737
ζ 16738
агра 16739
ker 16740
▁Әлем 16741
ต้ม 16742
▁battery 16743
返信 16744
ମେଣ୍ଟ 16745
▁ክፍለ 16746
▁고통 16747
មាត់ 16748
▁UK 16749
▁cyhoeddi 16750
ประการ 16751
▁bersalah 16752
热点 16753
▁адамдардын 16754
QM 16755
▁രാജ്യം 16756
▁päiv 16757
▁tớ 16758
▁12.000 16759
▁pořádku 16760
▁পাই 16761
▁ڏيندي 16762
▁86 16763
▁بقدر 16764
חופש 16765
▁prijenos 16766
▁instal 16767
▁пэўны 16768
▁vehicul 16769
▁создавать 16770
▁3000 16771
▁محیطی 16772
▁operaciones 16773
किल 16774
▁Endelig 16775
LAST 16776
▁Saç 16777
▁Куз 16778
▁senti 16779
▁tardi 16780
▁لسان 16781
क्षम 16782
नाम् 16783
▁ആസ് 16784
TSE 16785
措 16786
▁көзү 16787
ଟିଂ 16788
陶瓷 16789
扁 16790
缝 16791
▁Lupa 16792
萧 16793
笨 16794
事业单位 16795
伺 16796
脆弱 16797
甜蜜 16798
新能源汽车 16799
คัพ 16800
▁Mareykanka 16801
▁och 16802
▁donne 16803
▁desfasura 16804
CI 16805
▁hea 16806
▁katedral 16807
▁clar 16808
프로그램 16809
▁vijiji 16810
▁endamên 16811
meni 16812
▁gwella 16813
▁الجولة 16814
▁recent 16815
▁ਵਿਚੋਂ 16816
▁MAY 16817
ên 16818
▁particular 16819
▁קאמ 16820
▁funkcionalnosti 16821
治安 16822
六十 16823
ቴን 16824
▁filamu 16825
▁momenteel 16826
אציע 16827
ಸನ 16828
▁ומע 16829
▁értelmez 16830
▁objevil 16831
▁հանցագործ 16832
예 16833
▁активира 16834
▁erityisen 16835
▁prepriča 16836
▁time 16837
▁Gud 16838
ዲስ 16839
▁пропуска 16840
belli 16841
▁špeciáln 16842
▁armada 16843
АҚ 16844
絶対 16845
రంగం 16846
nil 16847
rina 16848
▁تيز 16849
▁členem 16850
tiennent 16851
ረሱ 16852
▁oper 16853
▁evidenci 16854
გაზ 16855
▁verwachten 16856
▁برادری 16857
▁nastavenia 16858
kovým 16859
▁Les 16860
08. 16861
тримання 16862
редне 16863
pti 16864
エイ 16865
മാക്കിയ 16866
▁iştirakçı 16867
患有 16868
▁پورو 16869
▁ঘরে 16870
مجموع 16871
pořád 16872
昧 16873
泳池 16874
low 16875
▁zenye 16876
憲法 16877
เงี่ยน 16878
▁kegagalan 16879
▁contro 16880
▁San 16881
▁círculo 16882
ຊ່ວຍເຫຼືອ 16883
連携 16884
▁Avtomobil 16885
▁দিয়েছে 16886
съществен 16887
▁Важлив 16888
stat 16889
▁Їх 16890
▁Nik 16891
▁ബാങ്ക് 16892
uu 16893
▁останатите 16894
Quan 16895
▁Amigos 16896
▁হত্যার 16897
▁sed 16898
形成 16899
ထားသော 16900
ிப் 16901
▁مبانی 16902
▁Gogo 16903
▁Hat 16904
▁konieczne 16905
▁الآية 16906
/4 16907
전체 16908
▁ٻڌائي 16909
▁истата 16910
1,00 16911
▁lig 16912
▁දන් 16913
EDU 16914
▁કરેલ 16915
▁zemāk 16916
▁제품을 16917
Норматив 16918
▁(2) 16919
വരാണ് 16920
▁eljut 16921
▁zimní 16922
THAN 16923
part 16924
vår 16925
▁level 16926
తనం 16927
▁రూపొంద 16928
▁Show 16929
▁jehož 16930
વણ 16931
▁using 16932
▁సమాధానం 16933
▁نوٹ 16934
АТИ 16935
▁yanaşma 16936
▁ஏற்பட 16937
▁fost 16938
▁чадах 16939
ப்பட்டுள்ள 16940
▁لوبې 16941
粹 16942
颖 16943
halter 16944
-8 16945
▁digwyddiad 16946
पुत्र 16947
貢献 16948
綱 16949
邮箱 16950
▁merkitys 16951
▁says 16952
jek 16953
콘서트 16954
កម្រិត 16955
▁сарадник 16956
годно 16957
adores 16958
樓 16959
▁Minimum 16960
▁қадам 16961
wasilisha 16962
اعتداء 16963
▁Colli 16964
ദന 16965
▁ხარისხის 16966
▁dating 16967
▁مختار 16968
▁مالیات 16969
▁സംഘം 16970
▁אומרת 16971
funzi 16972
पाठ 16973
REL 16974
▁31.12. 16975
▁Сім 16976
තො 16977
BO 16978
▁mahitaji 16979
utan 16980
អូន 16981
▁წერილი 16982
▁eman 16983
▁مشرقی 16984
▁ପ୍ରସ୍ତୁତି 16985
▁platby 16986
ėdami 16987
という言葉 16988
981 16989
पाटी 16990
▁서비스 16991
場所に 16992
▁Mango 16993
▁możecie 16994
▁ලෙඩ 16995
▁enam 16996
驗 16997
▁cleaning 16998
கல் 16999
▁ਗੋਲੀ 17000
▁Павла 17001
작 17002
▁aytgan 17003
▁ISO 17004
▁rusz 17005
ălă 17006
▁wakhe 17007
亚太 17008
▁Randers 17009
▁τουρκικ 17010
2018 17011
追 17012
IRO 17013
ग्रहण 17014
▁Romantic 17015
izată 17016
besaran 17017
രോഗ 17018
▁21% 17019
▁kokiu 17020
迷你 17021
▁проверить 17022
รับประทาน 17023
▁basada 17024
ističke 17025
态势 17026
终端 17027
zbek 17028
▁عمرو 17029
medewerker 17030
アカウント 17031
pénz 17032
▁차 17033
▁eröffnet 17034
del 17035
후 17036
▁Utbildning 17037
isce 17038
収集 17039
ば 17040
▁gekocht 17041
▁LE 17042
▁காட்டி 17043
▁우리 17044
▁wiary 17045
aren 17046
▁night 17047
▁Müdür 17048
▁알게 17049
▁යමක් 17050
▁stereotyp 17051
▁ഉടന് 17052
▁فروری 17053
▁خصوصیات 17054
වෙක් 17055
гаараа 17056
▁Oldal 17057
▁Operasi 17058
▁жител 17059
▁confi 17060
▁13.30 17061
▁օրերին 17062
▁වෙලාවක 17063
▁% 17064
▁قطعی 17065
obstacle 17066
1967 17067
טאר 17068
▁dəmir 17069
▁Mem 17070
▁nonāk 17071
vější 17072
スト 17073
▁വനിതാ 17074
▁весело 17075
▁79 17076
্রো 17077
fs 17078
▁înţelege 17079
▁seguirá 17080
አዲስ 17081
▁نقط 17082
▁megbízható 17083
▁Gerra 17084
iĝinta 17085
lig 17086
▁honden 17087
ဝင္း 17088
yg 17089
▁రాస 17090
αλλαγή 17091
ナ 17092
▁такса 17093
ાયું 17094
酬 17095
▁Έκ 17096
sad 17097
శంకర్ 17098
垫 17099
疹 17100
窃 17101
登陆 17102
南安普敦 17103
蔡英文 17104
姉 17105
មូលដ្ឋាន 17106
▁Outubro 17107
▁ap 17108
▁93 17109
フ 17110
настоящему 17111
lf 17112
▁ուսումնական 17113
▁έτους 17114
▁Infatti 17115
tut 17116
▁Mata 17117
▁seputar 17118
▁faqja 17119
▁conserva 17120
ź 17121
▁पत्रकारिता 17122
お待ちしております 17123
▁فطرت 17124
▁Southern 17125
▁күші 17126
▁sexy 17127
▁limit 17128
készítő 17129
широк 17130
飞 17131
קוט 17132
▁بہن 17133
▁cit 17134
▁13, 17135
▁благодат 17136
▁gcea 17137
IA 17138
▁υπολογισ 17139
การตรวจ 17140
פיין 17141
related 17142
首先要 17143
▁చూస్తున్న 17144
ሰጣቸው 17145
▁klasický 17146
▁naujausi 17147
492 17148
▁Device 17149
pakai 17150
▁vojna 17151
暴露 17152
▁kød 17153
▁авио 17154
PP 17155
▁articul 17156
бывал 17157
Fel 17158
ေနတယ္ 17159
歲 17160
تعصب 17161
▁бунт 17162
date 17163
மானது 17164
▁Ach 17165
▁Kvinde 17166
Ў 17167
constructie 17168
质 17169
▁құралдары 17170
▁svarað 17171
HED 17172
▁Մարդ 17173
苏州 17174
ในเวลา 17175
付費 17176
▁poging 17177
лепи 17178
အခ 17179
▁Dış 17180
▁piante 17181
▁specialist 17182
伟大的 17183
▁प्रत्य 17184
▁sorte 17185
▁moto 17186
再來 17187
糟 17188
修订 17189
碟 17190
▁නඩු 17191
จังหวะ 17192
▁încercat 17193
သတ်မှတ် 17194
owie 17195
▁बलियो 17196
DI 17197
▁Atelier 17198
▁Jornal 17199
4-5 17200
▁Çay 17201
▁харилцааны 17202
▁Gyula 17203
▁գոյություն 17204
remont 17205
▁służą 17206
EM 17207
ions 17208
▁vogliamo 17209
▁inglise 17210
rozumiał 17211
更為 17212
uotą 17213
▁Hayvan 17214
▁프로그램을 17215
▁impresionante 17216
▁MBC 17217
应用程序 17218
▁Dawladda 17219
▁տարիներին 17220
χρυσ 17221
▁bezoeken 17222
▁mbledhje 17223
▁Anda 17224
ଂସ 17225
▁kondicion 17226
▁الإست 17227
õõr 17228
▁Masak 17229
▁Papa 17230
טיל 17231
▁GEO 17232
▁Mikor 17233
▁ఉండి 17234
▁Еден 17235
年度 17236
▁väčší 17237
viikko 17238
eysi 17239
▁жылдам 17240
anja 17241
มื้อ 17242
▁अहम 17243
▁разъ 17244
tajwa 17245
తికి 17246
▁Tema 17247
崗 17248
畢 17249
олози 17250
康复 17251
ற்கு 17252
▁ਆਗੂ 17253
看護師 17254
ระยอง 17255
bijeenkomst 17256
āk 17257
▁cất 17258
類 17259
▁příslušn 17260
iwa 17261
▁обсъжда 17262
▁Instead 17263
▁připomí 17264
ens 17265
▁pārtikas 17266
ยิ่งใหญ่ 17267
▁mortuus 17268
▁अधिकारियों 17269
▁witryn 17270
▁απόδοση 17271
▁myślę 17272
▁[1] 17273
▁прыём 17274
▁النصر 17275
▁gan 17276
▁1500 17277
▁Selalu 17278
▁predchádza 17279
▁сотрудники 17280
өрдө 17281
qué 17282
▁çoxdur 17283
▁آفيس 17284
dınız 17285
▁செய்கிற 17286
▁Kúp 17287
▁landinu 17288
▁Opp 17289
▁करनी 17290
成熟的 17291
교류 17292
ეგო 17293
▁ئوت 17294
差別 17295
ungs 17296
มีอาการ 17297
▁imenuje 17298
gres 17299
អង្គរ 17300
ılacağı 17301
不會 17302
个性 17303
▁суралц 17304
▁अहं 17305
doiro 17306
▁રાત 17307
štų 17308
▁открито 17309
visninger 17310
▁thought 17311
▁Maj 17312
iga 17313
▁वाज 17314
βια 17315
▁Mello 17316
втор 17317
▁pojawiają 17318
▁وأس 17319
ox 17320
庸 17321
▁κυρία 17322
▁पाना 17323
ความร่วมมือ 17324
أكاديمي 17325
ş 17326
▁questions 17327
▁κλικ 17328
創 17329
▁přístroj 17330
▁cijenu 17331
原住民 17332
▁căutare 17333
▁тамаша 17334
▁будући 17335
▁члены 17336
▁дадатковы 17337
▁можу 17338
speed 17339
▁Umfang 17340
▁istifadəyə 17341
▁Pogoji 17342
▁Mam 17343
land 17344
klo 17345
▁հինգ 17346
▁пациента 17347
техніка 17348
▁Šodien 17349
रेशन 17350
▁seria 17351
tuseks 17352
▁يولغا 17353
这座 17354
เล็กน้อย 17355
▁3.0 17356
▁Codul 17357
两名 17358
аналіз 17359
toerana 17360
免 17361
一趟 17362
▁Ăn 17363
▁алдаа 17364
這裏 17365
g 17366
▁Shule 17367
▁Prefer 17368
▁келтіру 17369
程度の 17370
唱歌 17371
▁פריי 17372
ndar 17373
▁Pleno 17374
ನಾರಾಯಣ 17375
מדת 17376
▁celoti 17377
pihak 17378
ingar 17379
▁ආරක්ෂා 17380
tymistä 17381
▁Zá 17382
▁povinný 17383
koulutus 17384
▁Azure 17385
εση 17386
▁finalitza 17387
▁könyvek 17388
ED 17389
krok 17390
รึ 17391
ЩИ 17392
▁credere 17393
نورد 17394
台北 17395
દ્દ 17396
換え 17397
▁Fotó 17398
▁причините 17399
▁કંઈ 17400
黃 17401
متعة 17402
NHK 17403
欲望 17404
▁సాధారణ 17405
tea 17406
රිතාන් 17407
▁cleachdadh 17408
chukuliwa 17409
调 17410
▁interiør 17411
園 17412
▁ilusión 17413
▁rådighed 17414
▁żadnego 17415
▁fut 17416
▁polovici 17417
▁میاشتې 17418
▁큰 17419
▁meitsje 17420
▁திட்டம் 17421
▁بالقرب 17422
ミ 17423
▁Monte 17424
▁projekata 17425
▁انطلاق 17426
veiledning 17427
[...]
